/**
  ******************************************************************************
  * @file    network_data.c
  * @author  AST Embedded Analytics Research Platform
  * @date    2026-03-20T13:41:18+0530
  * @brief   AI Tool Automatic Code Generator for Embedded NN computing
  ******************************************************************************
  * Copyright (c) 2026 STMicroelectronics.
  * All rights reserved.
  *
  * This software is licensed under terms that can be found in the LICENSE file
  * in the root directory of this software component.
  * If no LICENSE file comes with this software, it is provided AS-IS.
  ******************************************************************************
  */

#include "network_data.h"
STAI_ALIGNED(8)
const uint64_t g_network_weights_array[112517] = {
  0x3e898e29bdc75e14U, 0x3e9d57653d99758fU, 0xbdc73df93e8ea159U, 0xbdd126023d8a3474U,
  0xbd673142bea2b227U, 0x3dc99903be3d8861U, 0xbdd3e135be8ba395U, 0xbd9f89003e5b7fb7U,
  0x3e6cbe283e5126bfU, 0xbe7ab123bea52313U, 0xbde03c4b3cac78f6U, 0x3dcd749a3e252467U,
  0x3e2c28793e8c00e1U, 0x3e11b5d03d8ed1c6U, 0x3e22924ebd80b792U, 0x3c4b2f4f3d9ce173U,
  0x3e1a12d1bcbcc8c8U, 0xbd82efa13e35ec09U, 0xbdd236333ca9bfd9U, 0xbe12df083e0349dfU,
  0x3e0f3006be243bedU, 0x3de60920be1e842cU, 0x3e3e82413e619d74U, 0x3e4f28353e32f1b2U,
  0xba9a53613d2d62baU, 0xbe9181fd3c4c5686U, 0xbbed10f1be8aef3bU, 0x3e0637c03dcbb603U,
  0x3e3bc47b3e829059U, 0xbd834ae8bd88f1ddU, 0xbe9946bcbe89a66dU, 0xbe842cb13cfc0eadU,
  0x3e6f07edbd91e44fU, 0xbc59dd50be3f71c8U, 0xbcd8e09b3d87e461U, 0x3e5c5951bc8d4267U,
  0x3d97555ebd99befbU, 0x3da149923e2cbd54U, 0x3e0aa50c3da63985U, 0xbe09411bbe86ccb9U,
  0xbdd7f88a3e17119dU, 0x3c1a00923e02f104U, 0x3e12a6e1be003743U, 0x3e1c86973d9a21d3U,
  0x3c38f91e3ded9b2fU, 0x3d635f833e12f6f7U, 0x3e4c7ddcbe88aeb3U, 0xbe0a4592bdc920efU,
  0xbc81f6b43e5d3cb4U, 0xbbe2822dbe1529f8U, 0x3dc6e7d6bbe71dadU, 0x3ddcba45be7cc863U,
  0xbe0628213e22a864U, 0x3e218649bdecaa82U, 0xbd53268ebcbfc716U, 0xbdab25243e48dc6eU,
  0x3e2c7ebe3e36c742U, 0x3e50b3dbbdcae37eU, 0xbe510eaebdcc9d69U, 0xbd2b5784be9f1dabU,
  0x3dcc8f40beb3eacaU, 0xbdbc48063e7416c2U, 0x3e1a99de3de6ae7bU, 0x3e3e830b3da3f55aU,
  0x3df8c2b33de8081bU, 0x3e04524e3e2b0ff8U, 0xbeafd14bbe7acbcfU, 0xbe2e35d6be682e5dU,
  0xbee7bf09beb183b3U, 0xbdd82d8abe90f245U, 0xbdd565ad3d1b3668U, 0x3ea360ec3d753545U,
  0xbe1c2c113d8250e9U, 0x3d3a25a6beb021bdU, 0xbd7adb873da11283U, 0x3dec8b583e53c074U,
  0x3c994a5d3e36c9d0U, 0x3dbc83a63e209999U, 0x3e1dfb0b3dc5110dU, 0x3deb1d813e0be7beU,
  0x3d3c350e3e0924f4U, 0x3e60a11bbb86a1bbU, 0xbe306d023dd5cd85U, 0x3e1cac2d3de80ad7U,
  0x3d01da27be5666bfU, 0x3e14e7e63d84a115U, 0xbe2f61763aa55a41U, 0xbe120d1d3e78868fU,
  0x3defc8dabe0b7754U, 0x3d61d541bdf737b0U, 0x3d95a4393de8970dU, 0x3de9ab8dbe1b18f0U,
  0x3ca7ec413e17a292U, 0x3e2a10b43d5f6246U, 0x3dec3f8f3dfabb92U, 0xbe904507bce5238cU,
  0x3ac939413e78e320U, 0x3e5dc1afbe87540dU, 0x3df8a54f3d8b1075U, 0x3e0289d83e5041bcU,
  0xbd189e713d71cdcbU, 0x3e3aa0cb3da72116U, 0xbe5fab4cbe7f303fU, 0x3e12da29be3d2968U,
  0x3e267cbf3e1de1c6U, 0xbc46f82fbdaba840U, 0xbcb5a3cf3e338a04U, 0x3e2f3bf23e0836e8U,
  0xbe4f99bebe33895cU, 0xbd4d1b39be128561U, 0xbd8c995ebcd095b0U, 0x3e4210483e6ffe75U,
  0x3d3f53e13e50ab83U, 0xbe3198983e03fdbdU, 0x3c3173f43e2f4ffeU, 0x3e1fd6d83db962cdU,
  0x3d91316e3d7fbff2U, 0xbe6641f43cee8a5dU, 0x3df93105be11df01U, 0x3e242a4c3e0cb46eU,
  0x3e3b40053dd7aad6U, 0xbd08d00cbdae440eU, 0x3e8dc06d3e2d33d2U, 0xbe44116cbea1850cU,
  0x3dae30f8bd41b2abU, 0x3d180b96bc900d30U, 0xbe0ca797bd29baa7U, 0x3d6b8173bc87dcf2U,
  0xbdc87433bd05d824U, 0x3dace62e3e105d42U, 0x3dc11dad3e4867c0U, 0x3bf5b03dbd46f107U,
  0xbe6860fabd894765U, 0x3e8cad39be672cdaU, 0x3d989d413dc05befU, 0xbdc874163e2fb7bcU,
  0x3e226655bc83a50eU, 0x3daf57163cde2f49U, 0x3e3261153d216b46U, 0xbd10d6d83d689e6cU,
  0x3e06e0b0bdb66794U, 0xbe4fc7ae3dbf42dbU, 0x3e3ac035be79d21cU, 0x3d81f1593dc2f3fdU,
  0xbb9166833b52e0c7U, 0xbd250f7ab840b2cbU, 0x3a1dce25bc5ef86cU, 0x3cc2e1de3b42af83U,
  0xbc926873bcfc285dU, 0xbc51a9923ca6189dU, 0x3cc5896fbaabac5eU, 0x3e25051b3c82565aU,
  0xbbb46eafbb4d80e9U, 0xbbdc44febbff2fc0U, 0x3a44b15ebc236214U, 0xbd4085e33c603417U,
  0xba96ea193d4185d8U, 0x3a5d5b4ebbe5fc0dU, 0x3cbf2532b8b637a0U, 0xbab5af48bc8f2098U,
  0xbd9d6e6b3d19f68aU, 0x3d80e69cbc78bc3eU, 0xbd143a1fbe031f64U, 0xbe0a0351bd993f54U,
  0x3dd46bdf3c82db6eU, 0x3c96672f3d823d12U, 0xbcf02e7f3d720d8bU, 0xbe3a12823d316d28U,
  0xbd147f153de3167bU, 0xbcc6d0003d2e647dU, 0xbd0cee963d2e404cU, 0x3db93eae3c81cacbU,
  0x3d3ce3003d93f185U, 0xbbb036923bdff24cU, 0xbce1fa9d3be9e262U, 0x3da6e71cbd0401d8U,
  0xbdfb42b43d91bb86U, 0x3db44935be36623eU, 0xbc53557abc86a82bU, 0xbe0a1aae3daefbcfU,
  0x3c8938eabd8cf43aU, 0xbe00ce1eba3331daU, 0xbce4cc46bbcb937cU, 0xbc8dc9223de48dfdU,
  0xbd995911bd7c06b9U, 0x3d0f906c3d0293aaU, 0xbde496eabcd2afa1U, 0x3d34e367bcf1ff25U,
  0x3c0137f5bd9491d4U, 0xbd914a2e3c884a4cU, 0x3d5c179ebd83391fU, 0xbd3b60f83d2b3917U,
  0x3dfb2cb5bdf7d0afU, 0x3cb2804cbcce8bacU, 0x3dcacf5c3e083959U, 0x3d240d753d8afe71U,
  0xbd7c96d33e073f4aU, 0xbd001de2be927cbdU, 0x3dd8ffae3d934536U, 0x3d1d59a4be205194U,
  0xbcc18e2bbdd5f571U, 0xbd8ca278bac23e3cU, 0xbdc7c7b13d2e475aU, 0x3dbf28c3bdfeb1b6U,
  0x3cf45b7bbd9138cdU, 0xbda63d1abdcd76b3U, 0xbdd180ebbcbabfd0U, 0xbe1012ccbd6e8543U,
  0xbdffee993dc645b7U, 0x3cf5cf7b3c931d42U, 0x3d56c862be200479U, 0xbde47e613e0847d5U,
  0x3d8767223d2cf143U, 0xbdfd1fe23d8616cbU, 0xbd210e273cd07190U, 0xbd9f19c53ddc8403U,
  0x3bec91273d05905dU, 0xbb556b58bc81b955U, 0x3dc312683c250a8aU, 0xbc7240bb3ddedb78U,
  0xb971dd9abc956573U, 0xbcf088b63db16632U, 0xbcfed57f3d7b59f8U, 0x39efaa503d725773U,
  0x3da869debe18b91dU, 0xbdfa6b79bd571c3eU, 0xbc810b583c758cbeU, 0xbd04b11cbd2946ddU,
  0xbda7fd66bcf9668cU, 0xbd5c92a4bdaff737U, 0x3d80f498bdc78597U, 0x3d62a744bd23222aU,
  0xbdc668bfbdabb020U, 0x3d058cebbd277a38U, 0xbe2e403dbb945c35U, 0x3cd4beb9bd87e152U,
  0xbd7cc230bb6fde08U, 0x3d14989fbd4f7d39U, 0xbd9f6e5c3d145307U, 0xbdc87c86bdb3b919U,
  0x3dffdd523e1817deU, 0x3dea531e3db0933dU, 0xbdac0e123d984634U, 0x3d365e6b3d924a88U,
  0x3e11baf93d515778U, 0x3cf247aebe230b85U, 0x3df9ed8b3e1c8d3aU, 0x3c49b443bdcf88dcU,
  0xbb688fa8be27e32bU, 0xbd2b41713cfd9acbU, 0xbd99bbc23d05dd91U, 0x3df0e8aabe06c651U,
  0x3abc5c0ebbd375d3U, 0xbd15534a3d2ee054U, 0xbe0f69fbbd1389e1U, 0xbdcc6c38bcf0b9e4U,
  0x3ccf8311bac25562U, 0xbd981a7dbdbbe6b6U, 0x3c51e536bda7d25aU, 0x3d8159b63d843c37U,
  0xbd8469e0bde60212U, 0xbc70716e3dc20d52U, 0x3da51886bdf5906eU, 0xbca2145b3c10ec56U,
  0xbd256e18bcec5c63U, 0x3d8ae9f6bb43df6fU, 0x3d32ea97bc7f85c5U, 0xbdfce0d3ba981a74U,
  0x3c94b161bda19a75U, 0xbe1ee533bda0184aU, 0xbd00e7b7bd1dae5fU, 0xbce3556a3b6e7270U,
  0x3d9dbf333c10686dU, 0x3bd5e8763d46a579U, 0x3ca525de3de0dfe8U, 0x3dd53f0abd22f6c5U,
  0x3cf60edd3cc27f27U, 0x3dd605e5be2a42c9U, 0x3e00efb43d290d35U, 0x3d680d22bc66b13bU,
  0xbd919f75be1603fbU, 0xbda81c613c0be78dU, 0xbe27a4533ce57632U, 0xbd5ae0bebe0410acU,
  0xbd1e633abde64d88U, 0x3de6f3d63b8406cdU, 0xbe37b2f1bc648f0dU, 0xbdf8ef71bc8855a4U,
  0x3dba16ab3d7a010aU, 0x3d267b0d3dcd9798U, 0x3d6e0932bd2341a1U, 0x3de65b713d36e935U,
  0x3d39d9133dd6c475U, 0x3d68a1023e132e72U, 0x3da4fe5e3e0a756aU, 0xbe3b222e3d26de4aU,
  0xbc1fdf14bcfa1d3dU, 0x3d8340a03d661031U, 0x3ce082a8bd3d1c0aU, 0x3bb2e3ca3d093532U,
  0x3ca4b53abe1c2898U, 0x3def49cebc4d26b7U, 0xbdf06f253cb73272U, 0x3c997486bd5cabfbU,
  0x3b806f963d97ce41U, 0x3d3b9d39bdfd9dd5U, 0xba238a72bd2d96c4U, 0x3cc3e7d33b56e412U,
  0xbdbd6160bd2b142fU, 0x3dde74223d4804fdU, 0xbd14cb553dba1c25U, 0xbe3d70a73d7f5ce1U,
  0x3cf6e1b03cdd323fU, 0xbdf12f383d49a9f8U, 0xbd797ae8bd1021f8U, 0xbd54ae5fbc1872bfU,
  0xbd15f99bbda64e79U, 0x3c139538bcd2e619U, 0xbdd9a62fbd9cf024U, 0xbda19c64bc0a8ec4U,
  0xba5c22a43d365e53U, 0xbdbb8bd1be1d0f4cU, 0x3cf643d9bd35fd2bU, 0xbd91c7dcbd6b04f5U,
  0xbe19ee1abd834da5U, 0xbddd63b03d1877f2U, 0xbe16251abe097bafU, 0x3b4fff613d9e1803U,
  0xbdea6acbbccb4a54U, 0x3cfc8c5abe334675U, 0x3d02d9183c550a51U, 0xbe0d8c003cebc75fU,
  0xbdf2f2273d80ffc5U, 0xbc83294dbdbb623eU, 0xbd8138cebd2b21a6U, 0x3c339562bce0b0ceU,
  0x3dddd3e2bdc54ce0U, 0xbdb4c48abc72ee8fU, 0xbdb1a9813dd57e29U, 0x3d1cc81fbcd60bd8U,
  0xbc1a939dbd6ba6e3U, 0xbdcc00fbbea2775cU, 0x3c8cfaedbd9075a4U, 0x3e55586bbd2654a8U,
  0x3c9f5acabdaf62c5U, 0xbde4ce23be0ea361U, 0xbd54e9953cb6127bU, 0xbdb55c8abda90f63U,
  0xbdfcdaf83da3eaa4U, 0x3d698618bdbbf279U, 0xbe1c1bae3d900930U, 0xbd7ff12ebcd6493cU,
  0x3af903febe0f750bU, 0xbe1bc9d7bdf24d10U, 0x3dbd5819bdbc9004U, 0xbcc93d6cbd5e5cbbU,
  0xbd4a1872bd8ed50fU, 0xbd35b0b2be76f027U, 0x3d0201e8be0359cfU, 0xbd6932cd3d66c0d5U,
  0xbdaa94dbbe01cd26U, 0xbdeba59cbc0873adU, 0xbe1d06e8be23ea2cU, 0xbe139b1d3d9cc0aeU,
  0xbe0f9b34bdb9935dU, 0x3c3ac013bd7aabceU, 0xbd759283be05cc10U, 0xbd729a26be5e77a1U,
  0x3d95e577bd89ef82U, 0xbd5743523df2565cU, 0xbe1fcdb7bc7b6170U, 0x3d4860d3bdf9c362U,
  0xba92025cbda4caacU, 0x3dc1de50bdd60af2U, 0x3ddb28c03da56698U, 0x3dc0f2e8bb8ad1a0U,
  0xbd4f433fbd44e41aU, 0x3cbe1a9d3d102c29U, 0xbe2461d13d8d15d5U, 0xbcf7a40ebdbea247U,
  0xbd2f52ca3d4f496eU, 0xbe0838603d5957deU, 0xbe02d71abce4afd3U, 0xbd27c90d3d889a5bU,
  0x3db765223e5a5cffU, 0x3d2c1fa63dad9c2eU, 0xbd7703233ddc0806U, 0x3dbca4c0bb222422U,
  0x3d591211bd77769eU, 0xbc1b030ebe46a150U, 0x3dc0776c3da4d65aU, 0x3e00fe4e3e693f85U,
  0x3df16d09bdda7b62U, 0xbcd1fe973d82a0baU, 0xbdc2dbe2bd4fd71eU, 0x3c8ac7143e0c20c0U,
  0xbd88dca03d4c5c80U, 0xbc42ab433e127013U, 0xbdc399813967944dU, 0xbde23b9f3d8037c3U,
  0x3e4fc200be0d6327U, 0x3cea062b3dff92abU, 0xbd91ee903db4af24U, 0x3e19e4ffbe232c01U,
  0x3c03e49ebd92ac5bU, 0x3d9d9496bddac174U, 0x3e4e1c233dfde16fU, 0x3dd74847bda3419cU,
  0xbbef7d3a3d654e35U, 0xbd7ab15dbd958a6bU, 0xbe170a023d69227fU, 0xbd20c7a2be1cfb4cU,
  0xbd6c3f643dce2724U, 0x3d19fc723d9f8577U, 0xbdd67a0abd392b2aU, 0xbd2f7fc33d7be843U,
  0x3e1d68fe3e0793a0U, 0x3d750b173dc35a54U, 0xbb570dba3ddd3979U, 0x3d380a573c9c7924U,
  0x3df9ea2abcc70658U, 0xbc259534bd5b547aU, 0x3e3229153d95c960U, 0x3c2627e93d692a14U,
  0x3dc27f27bd07fe78U, 0xbd7b64abbd271e33U, 0x3cc51de6bb283714U, 0x3cbd4a6a3d11ea6bU,
  0x3cd0a2bd3d8b009fU, 0xbce170b8bd5618cbU, 0xbd7b691d3d2021d2U, 0x3c6d6950bd86e067U,
  0xbe5e7b7c3e131347U, 0x3d546f85bd6877b4U, 0x3c130efabd14bfe5U, 0xbe7463ff3da0d95eU,
  0xbd0a701dbdeb385eU, 0xbe5e49e73dfe1505U, 0xbdeb36ae3cf1f301U, 0xbe47f3cb3de3e8b8U,
  0xbd895a43bce49bcdU, 0x3da93a4ebd50b154U, 0xbc839dbfbcf60781U, 0xbd8b6d653e073cb5U,
  0xbd9c6785be1ffcdcU, 0xbd85a3a23d2b0731U, 0x3d53d83bbdd96ae1U, 0x3dfde122bdda9f04U,
  0x3c2a90693db35a71U, 0x3e27d3f0bc95b3b7U, 0x3d83dbed3caf4154U, 0xbdf850d03c606359U,
  0x3d41c70abc722b89U, 0xbd3c55da3d5d8eadU, 0xbdc653013dccb7b7U, 0x3cd551d93d52be81U,
  0x3deda75e3caea7f5U, 0x3db9ce3d3c15c6f2U, 0x3dcdca00bbccdd69U, 0x3e195a653d988ba1U,
  0x3cc01dc5bc25570fU, 0xbcae871a3d95648aU, 0x3d964d8e3df4895eU, 0x3d671a683d696177U,
  0xbe1799e73d107b07U, 0x3e164bcabe0e1867U, 0x3e1a437fbdc30f1bU, 0xbe277bb23cdf5f05U,
  0xbceb37223dc33e0bU, 0xbc258b523e2a0a54U, 0xbdf1c1e0bc9ee6daU, 0xbd840fbc3de5dc19U,
  0x3d98af37bc229c30U, 0xbc7c1b0cbd0fc033U, 0xbbafe200bccd559fU, 0x3c7682633dbf247bU,
  0x3d893943be22db77U, 0xbd96f98abd6703bcU, 0x3b7ebc0f3d86371aU, 0xbd122cd53cf6a7cdU,
  0xbd87650fbbda8dcaU, 0xbd75e6a8bd5e185eU, 0x3e06c8163de672dfU, 0x3c1724f3bd048380U,
  0xbd7b10333d8c51b7U, 0x3e063cfb3c8d20a6U, 0xbd3ea0a63d834f7dU, 0x3c4ad7473d6fc947U,
  0xbc40e3933b7433c9U, 0x3d9939673d579552U, 0xbb82e06dbb9e2862U, 0x3d556f373b882b04U,
  0xbd022c213da1e36dU, 0x3e0ce1e33d9e172bU, 0xbd3c29373bc35596U, 0xb9e8d8c63d800ee9U,
  0xbe00ccef3d2cb88aU, 0x3e062ecabd253b7eU, 0xbdd606723d03e065U, 0xbdba99e8bddb6230U,
  0x3c989d9b3d3c897eU, 0xbda092363e1ef5d2U, 0x3d4953e7bce1b305U, 0xbced5502bc0fcbeeU,
  0x3d7e432d3d82dd59U, 0x3da672a43c530cceU, 0x3e2a3af83e00afe6U, 0x3d4c712abe00d129U,
  0x3dd2ba76be50ba49U, 0xbdc2dad43da52e81U, 0x3daa579a3d3f3b73U, 0x3d49f5f73d9800d7U,
  0xbdd5aefabd037c6fU, 0xbcf8aa1dbe86f350U, 0xbde248373c2d1decU, 0x3c2a8ba6bd1dba6cU,
  0xbe3bde44be4e18bfU, 0xbd7dc9633b65efc3U, 0xbce4dc46bdf41d07U, 0xbd0bc7c7bdaf6ad1U,
  0xbc92712d3bd61001U, 0x3dbdeee8be2df1d8U, 0xbc9df425bdaea671U, 0xbdc660cebdad4e56U,
  0xbd9495febe0f5a35U, 0x3d3955523d93f123U, 0x3dc3c8f4bda246b8U, 0x3be72c2e3b507244U,
  0xbda44d0bbdd5d430U, 0x3c99bf7cbd9045fbU, 0xbd7336643dc163bcU, 0x3de639cdbd296c0cU,
  0xbd8ad40ebceda684U, 0x3dcf4e27bdc1d534U, 0xbd29a1573deba5e7U, 0xbdfb4c2c3c042883U,
  0xba029e69be0deb3dU, 0xbd744a043d1e66cfU, 0xbe1d9ec5bd8162cbU, 0x3ca1d0fcbd4f2f18U,
  0xbd293b4bbdbb72e3U, 0x3e1868e9bdab2e10U, 0xbd366570bc978aa2U, 0x3d529e18bd81e49eU,
  0xbc1243753c9a6c77U, 0x3c0ec42fbd6df36fU, 0x3b45a6b7bc643473U, 0xbd18b0623c017aa9U,
  0xbd44ccfdbdb558beU, 0x3bd2040d3e2c25d5U, 0xbdb38af7bc99a990U, 0xbdce2d73bd8ad50dU,
  0x3dd0455f3dcc3255U, 0x3e34785bbdd952dfU, 0x3dcf665fbcd5eb97U, 0xbd7ceff93d69864eU,
  0x3d1f098ebe2ba3c9U, 0xbd3645b43d1a3650U, 0x3d4cadf3bda87e76U, 0x3c9b078d3d189464U,
  0xbe2a9b81bdc57cdbU, 0xbb6a17d6bdb7eb04U, 0xbdcf4ba1be0b22b5U, 0xbe210b62bd39027bU,
  0xbdc323b0bdb43b38U, 0xbd9cb47a3d3e32f9U, 0xbb8043f5be41b0a2U, 0xbe1a10e4bdd3777aU,
  0xbd3e2a34bdb38e97U, 0x3d527ecabe60fc4eU, 0xbd73c5dcbd6884b0U, 0xbdb538783d49bcc2U,
  0xbe07c008bd42b771U, 0xbe03bdd0bdccebd4U, 0x3cef371cbe30aa24U, 0xbe09bd11bd99e91bU,
  0xbe1e7485be0fefeaU, 0xbd168625be1bbbb1U, 0xbdbd4b81be0029c5U, 0xbdfd7bd43cad0a70U,
  0xbe0b632fbdd99facU, 0xbd70e3c2be336de1U, 0xbe36223bbe1e2e21U, 0xbe132f26bdc45dc3U,
  0xbc7047bfbe2883f6U, 0xbe27addfbcb4d8f8U, 0xbe139b0cbe22e692U, 0xbd2298ae3d0ad5b4U,
  0xbd6db4c5bdce07b8U, 0xbdbc871fbd662722U, 0xbd9061eebe0a6233U, 0xbdec3d54be2fbfadU,
  0xbd14f871bc983c70U, 0x3d9dc91fb9bebcf7U, 0xbd6f35f03d8f37fbU, 0xbd0e2fd3bd892996U,
  0x3ce34e1bbd0a1f12U, 0xbda83c6dbc491a07U, 0xbd07f891bd9895e9U, 0x3cca24b5be1b3017U,
  0x3d132d8b3d91cbdaU, 0x3dd9ac0dbcaff6c3U, 0xbd46bc05bd773734U, 0x3aed609fbe154280U,
  0x3cec07c63cdb1985U, 0xbd574911bd42a63dU, 0x3e139a7fbcbce56bU, 0x3c50ef5abce7e468U,
  0xbb0e3c8b3ce041b2U, 0xbd40e4713d79114aU, 0xbd285922bd9ba8c9U, 0x3d9226e5be0b889fU,
  0x3ce2963abd98973aU, 0xbd0cddb83bcd1576U, 0x3cf2bc2c3d1ba33dU, 0xbdbcbe10bd0aa977U,
  0xbd5ff2b03d9cf50bU, 0x3dc50ac9be19aba6U, 0xbd5843c43d04b683U, 0xbd784f6dbd5c4130U,
  0xbd152e2b3d0b9ad6U, 0xbd3b14c53d0017ceU, 0x3d7ea545bdad295cU, 0xbd618e9e3d13709aU,
  0xbb56da983d39d509U, 0xbda3e8d03b9db283U, 0xbc81bca13dccb62cU, 0x3d7dca3bbda226aaU,
  0x3d4c4c65bd9314b6U, 0xbdfcf915bc2cb9b7U, 0xbd27442cbcf9cd07U, 0x3b4e3cacbd6fbd3dU,
  0xbc6c5cd03d6221c2U, 0xbc53c04ebda3c251U, 0xbd54fd703d34086fU, 0x3d5b32f8be0e08fbU,
  0x3d12408e3d853e5cU, 0xbd23b1bb3d55b5ccU, 0x3d1861aebc8c21bdU, 0xbc5a8a2bbdad5873U,
  0xbd8cbd443c8bb6c5U, 0xbd90c5bf3d5b19feU, 0x3cb8b9a93d6de6afU, 0xbd4479f9bcc977abU,
  0xbd3725393df14497U, 0x3c29081cbe49cb2bU, 0xbd0d49ea3cb7c780U, 0xbd42fee13dd57d9aU,
  0x3d6e3a5bbd3de259U, 0xbd9a9551bc80391dU, 0xbd0c63cbbc3aff30U, 0x3d9888703e45d63eU,
  0x3ce442493ca1e846U, 0x3d363e8e3d0126bcU, 0xbd4de3963cd5da51U, 0x3d8d1b1a3d3367cbU,
  0xbd651db73d9e780dU, 0xbc727b583d9b7dbcU, 0xbd342f5cbcca6629U, 0xbd3d784fbd5c9ef8U,
  0x3d402e3ebd908717U, 0x3ac6a2adbc62ff72U, 0xbca864c33dbee044U, 0xbd4d5a2e3cf2a997U,
  0x3d7c4c563cccc8adU, 0xbd31d8e9bdcccf44U, 0x3cdb13bdbc520e4aU, 0xbc19f84d3dad79cdU,
  0x3d892f3a3dfc1d11U, 0x3c60b3923c61bb24U, 0x3d55085ebc13de32U, 0x3dd97f373d68cd3cU,
  0xbd02595f3decbc77U, 0xbaa00fa33cdd29f2U, 0xbb96ec1b38aa6e65U, 0xbd8b9c0e3d198691U,
  0xbce45ebb3daf6135U, 0x3d1cfc21be3ab8a8U, 0xbd7c7e96bc37fb91U, 0x3d22639abd243f8bU,
  0x3ce4b038bc70ea10U, 0x3ce0b53d3d89c987U, 0xbd1a0462bd443c39U, 0x3c36f4d13d8f1701U,
  0xbd140b62bca923cdU, 0xbc01d5003db47b08U, 0xbc45882e3c81f60eU, 0x3cc3b9a13d369896U,
  0xbde0c530bddb9349U, 0xbdb56273bd2566dfU, 0x3de2696dbd958229U, 0xbd3623443dc64a39U,
  0xbcd2da6abc89943bU, 0x3d22600fbdea0151U, 0xbc839e7f3d5f2521U, 0xbd8f3c243e291543U,
  0x3ce1117e3ca4a06fU, 0xbbb35c903d00f8ddU, 0xbddd8ba0bd021452U, 0xbd6f68cb3e0abf43U,
  0xbe1a3f273d999265U, 0x3ddec82ebddfc00bU, 0x3df791103d05c86cU, 0x3de79f02bd375d97U,
  0xbd18d0d0bd260521U, 0xbdc09a82bdd47c60U, 0x3d6f489abcef3227U, 0xbd93829c3e172caeU,
  0xbd5d50c93d4c0769U, 0x3d0cd1c4bda9c7cbU, 0xbe0dea6ebdb62099U, 0x3d2374373e4ab360U,
  0x3b20630fbd58b6c6U, 0xbe24ed9dbd94c093U, 0xbdffa295bd186c5dU, 0x3caa99803dc235eeU,
  0xbe05f98f3d74f139U, 0x3d92affa3ca4dba2U, 0xbc34ef0fbdf8a23cU, 0x3cfd86f6bb1e0bc3U,
  0x3b4c8d03bd2eee2bU, 0xbd53345dbdd8ba6cU, 0x3de874423cf1b808U, 0xbdee781f3d40817dU,
  0xbdd6fe9d3ccf9b05U, 0xbb209761be6efcb7U, 0xbdf63ec3bcdc3b9aU, 0x3b527e883e057e9fU,
  0xb9668364bd952edfU, 0xbdd8d729bc29db94U, 0xbdeb2e68bdaee9b3U, 0x3d72db7e3e18f722U,
  0xbdd1542ebd710228U, 0xbcb1da3fbd08699eU, 0xbac62b4cbdf2e750U, 0x3cd01d27bddcfc7cU,
  0x3e10ddb83d9a7bf2U, 0xbd1d80d2bd39543cU, 0xbd47683b3dc47eefU, 0x3d4aa4ea3dfa542cU,
  0xbd0809473d9d2418U, 0x3d523231baff3dddU, 0x3db62b293c45b17aU, 0xbe2168d83d3b815fU,
  0xbd5b21aabb3adfeeU, 0x3cf4d5b93d91242bU, 0xbcbb4ce83d019e3aU, 0xbcdb9d70bd66e799U,
  0x3cf1dab3bc9996a3U, 0x3d53c9673cf369abU, 0x3c19fb1d3bbfaab0U, 0xbba38a3e3cffe96aU,
  0xbbe56759bd93b259U, 0xbdb61e563c7e47c4U, 0x3cdd02ce3dd54c4dU, 0x3cf22a9ebbfd43d8U,
  0xbd1c0b0c3d0f1d5aU, 0x3d84c32abcfc60e2U, 0x3c52f75abc3d90f4U, 0xbd0575e4bdd65f57U,
  0xbc3cbee6bd128d17U, 0xbce6ecabbb3e17f7U, 0xbd2e6ba6bcd19f0aU, 0x3cbcfb8b3c97f06eU,
  0xbd47de18bd423e5aU, 0x3da927fabdb6061fU, 0x3d6b4d06bd823bfaU, 0x3d9591b9bd3e59faU,
  0x3e23d9a6bda4c21bU, 0xbc20d9fabd0bf7c0U, 0xbdf50aa23ddef0e6U, 0x3c3dc96c3c83d64eU,
  0x3dc3ab93babeb73cU, 0xbd8ef308bd7262c7U, 0x3db88190bd55b642U, 0xbc999590be08cccbU,
  0x3d3422033dbe0fbcU, 0xbbe855c6b9548f73U, 0x3cb499c93c72d674U, 0xbd20845fbdcdc9b6U,
  0xbd8f4b29bcb59fb3U, 0x3bf86c133d0f2d5bU, 0xbd5592df3d60d329U, 0xbc11889bbdbf0da1U,
  0xbcd9d3173cf51cfeU, 0x3d5151f03d302677U, 0xbd92e281bbc33066U, 0x3d3f93c73ce14a2bU,
  0x3c263c8f3cf87632U, 0x3c29af0ebc71329dU, 0xbd0f2eb2bc0957e5U, 0xbe5676393b800c95U,
  0x3c4ce26b3e134787U, 0x3d9d70313d8305cbU, 0x3a9155ab3dbc3c10U, 0xbcbf60e63d7eb561U,
  0x3dcd59cd3dece611U, 0x3d08f5b8bc69768aU, 0x3d0f51bfbd29013cU, 0x3d8293a03dae4482U,
  0x3df2dad1bc57eaedU, 0x3d9189693e13549bU, 0x3ba9b4dd3cb6d0abU, 0xbcc3dfa2bd913f56U,
  0x3cf1cd9a3d6688d0U, 0xbc8a43a4bdae7523U, 0xbd437211bc7fc118U, 0xbb0db4d9bda2647fU,
  0x3d99b42fbcd76364U, 0xbd73e702bcade57fU, 0x3d9886c4bd61cd60U, 0xbd86174bbdd46725U,
  0xbd6b0f873dcb084aU, 0x3dd3e8943cf6e973U, 0x3d1ed41b3c266e88U, 0x3c444890bd214a3aU,
  0xbc5c6cfa3db3ff9cU, 0xbd2654c03d5800ffU, 0x3db3602abda42e1dU, 0xbdfa65a43d8011ddU,
  0x3cd78d27bb5c46a3U, 0xbd1feae23c58f899U, 0x3d61a581bdaf39d3U, 0x3d6026633d8e5393U,
  0x3d734f64bd419db0U, 0x3d9dab4abd60c526U, 0xbd30db6f3d64659fU, 0x3d7fd72bbb8cfef8U,
  0xbd58bd4fbc8bc399U, 0xbdd7ca0cbc94c0c9U, 0xbda05bcabb08e169U, 0xbd50d3333c828882U,
  0xbd75e3043c29927aU, 0xbd87622dbd91d241U, 0x3d84efd4bbe9f8f1U, 0xbd067c273e2427d2U,
  0xbdee2ffe3debf12fU, 0xbc6fdf47bd92e30eU, 0xbe3b6f34bcf47111U, 0xbe3a27833e614bc3U,
  0x3d354b063c495d12U, 0xbd8a250cbc3a879cU, 0x3beb72c0bb7c3dc9U, 0xbda638a63e65cbbbU,
  0xbdc14430bce47cdeU, 0x3ddf130c3c2201efU, 0x3dc02ad4bd0c0224U, 0xbca30069bd9c0886U,
  0xbc01781d3d447be7U, 0xbdaf3acbbbdd338fU, 0x3db8edc63b0184a5U, 0xbe0f09223de1dc01U,
  0xbd7ab64c3dbb77e7U, 0x3cf0a5c7bc8a69d8U, 0xbd577c303c9b2f8bU, 0xbd78048b3e25702cU,
  0x3d2516ffbe2ffbccU, 0xbd8c3301bd9e3428U, 0xbd7f9ba5bd844897U, 0x3d86ce293d34d314U,
  0xbc2acb603b920d42U, 0x3c510cb33ccf741fU, 0xbd01c7d0bc860a13U, 0xbd6cb596bd8f4fa6U,
  0x3d3de2dd3cebf7cdU, 0x3d16743cbd3c408aU, 0x3db0f8683ca0af5aU, 0xbcf206dabce376e7U,
  0xbdd6cf4fbd56d6f8U, 0xbb1ac94abcf760b9U, 0xbbf0a50b3d42110dU, 0xbd7cd2363d6be3b4U,
  0xbdcb13f8be2afd56U, 0xbd14389d3d163d07U, 0xbd83bb823c3133acU, 0xbd1f993c3de5ac6bU,
  0xbcf5164ebd13d2ccU, 0xbdcadccc3c3e995eU, 0xbd97ab72be1991d8U, 0xbe186da5bda0bb18U,
  0xbdadfbfb3d43037dU, 0x3d20d4b1bb57885dU, 0xb9efbab7bd812fc8U, 0x3da3a428bdf90866U,
  0x3d5241ea3d0b247eU, 0xbc2c6c413cc51f30U, 0x3d34187abcabe5a1U, 0xbdea8b61bccaf602U,
  0xbd49e2393c7fb880U, 0x3db4e1e5bd81702aU, 0xbd7ed7e6ba8b453aU, 0x3d4fc2c3bd122843U,
  0xbc80bb1dbcd54db7U, 0xbdd61d43bcc6334cU, 0xbd744030bb339e09U, 0xbde84904bd4bcf56U,
  0xbcb7e7ac3c50321eU, 0xbdc6f81fbd571458U, 0xbb17b77ebdd37115U, 0xbdb413e03dc74560U,
  0xbd227ca3bc862179U, 0xbcf9d17e3d98c0bcU, 0x3c71a80cbc1fd75bU, 0xbd1cc2f0bcdeacf7U,
  0xbde17960b9ad8950U, 0x3c919293be05898cU, 0x3dabf47f3cd53f61U, 0x3d0823c43db2d4a8U,
  0x3d6588cebc049a69U, 0xbd321acdbd3916e2U, 0x3d8cb2c93cefb8d9U, 0xbd907a34bcd12a31U,
  0xbd9f38adbd91e24bU, 0xbd8a969ebdf7f9d7U, 0x3de346aabc232d6eU, 0x3d989d3a3ce25f02U,
  0xbc81cbdc3cdec0c2U, 0x3c23e35cbd8e7eadU, 0xbe183387b943ab49U, 0xbde6be643e28017eU,
  0xbdbbe6473c14b81cU, 0xbe0505e33c826fa2U, 0xbb1f1075bb1dbe7eU, 0xbd7c2ee73e11714eU,
  0xbdbfd9fd3bbceec6U, 0x3d3e448ebc663284U, 0x3cebf6cd3c19889fU, 0xbda9413c39b29949U,
  0x3d345079bdd6fcd7U, 0x3b99150dbd508d28U, 0xbe18b68bbcf4e3aeU, 0x3c8c444cbdbfac60U,
  0xbd15dfbabcac657aU, 0xbcd19ec0bd619c44U, 0xbd4b9e58bd924f47U, 0xbc378638be225160U,
  0xbb47fae23e0a340dU, 0xbcecec40bdc2675eU, 0x3db0d5fd3cab7700U, 0x3d85682bbe2918bdU,
  0x3dab1b19bced188cU, 0x3cb5cd293d92eea2U, 0x3e1c32743da75979U, 0x3e00d84cbcffb4fcU,
  0xbd19fd26bd503592U, 0x3bdf26a4bc7a45eaU, 0xbdd673d73d18777fU, 0x3dc58921bd8871d6U,
  0x3d258aa2bc478ba6U, 0xbd6cba72bd98bc0cU, 0x3b24bfd83d3e6403U, 0x3d653a9abdca136eU,
  0xbbc561583dabc59aU, 0xbc2d8e03bd98c5ecU, 0xbc87be4c3c34db2aU, 0x3cb915dbbd38c22cU,
  0xbce0b8fe3ddf0504U, 0x3e0f8c943cf09bf8U, 0x3e0442413d34f2f8U, 0x3d2803833d4947d1U,
  0x3d4d3ae6bd2b8530U, 0x3da8b3423c9d7648U, 0xbda461d2bb9d05b2U, 0x3ccef123be0e211dU,
  0x3d3825683d102faeU, 0xbdbdcf28bc694e1cU, 0xbd1f5d92bdc5e72dU, 0xbd4a165e3a9026ecU,
  0xbd345ab43da242d7U, 0x3db117ecbb596156U, 0xbbeeb412bcb0339fU, 0x3b915a59bcd18d84U,
  0x3bb153573d6e9598U, 0x3dd50103bd163806U, 0x3ddc94253e0c257bU, 0x3dd0ab12bc0fde39U,
  0xbd98548dbd4d4b21U, 0x3c2dfc9ebd8c812bU, 0xbc9e1fcb3c8f985aU, 0xbdc94eec3d8a92deU,
  0x3d22370c3b8803e8U, 0x3d06d234bde7250fU, 0x3ce6fec0bd1c3703U, 0xbdf40f663e0a8f78U,
  0x3d7664323de7bfbfU, 0xbb2c73553d531e79U, 0xbc453e6c3dc4777dU, 0xbd114c773e03f3b0U,
  0x3dcac71ebd079c22U, 0xbde315b73d77bb81U, 0xbde066be3d845ce6U, 0x3ceab27a3da89681U,
  0xbde5bd663cf3a2b1U, 0xbd55ae523d11f37dU, 0x3dc3bb433c94a96cU, 0xbe0f29a83abba8bdU,
  0xbcdd66c73df4a3ceU, 0xbd6cacbcbe4579a7U, 0xbc26878dbd1a31cfU, 0xbe413a233dfed74bU,
  0x3d5510ab3caff5d3U, 0xbd8c4ab33ca699e7U, 0xbc9cc1bf3cbc7e6cU, 0xbd4eeec63d9e6119U,
  0xbd256113bb5012b7U, 0xbcb39f4a3d6e6850U, 0xbd514e8e3b421621U, 0xbd7d7a533d63fd85U,
  0xbcfd6b7f3db76c91U, 0xbc31ee7bbd95a3f9U, 0x3ca19ca33ca10b55U, 0xbe1e275fbcd460caU,
  0xbb89e1b93db1453bU, 0xbd0f14d9bdb1772cU, 0xbda1d14a3d903ffeU, 0xbdb6dea93dcc645aU,
  0x3dba17533dd17b59U, 0xbcf67eb03dcd47a6U, 0xbcfaf2fe3d680c80U, 0x3e0b17413dc4d6aaU,
  0x3dc7f3a8bd0585eeU, 0xbc95b37a3d51e256U, 0xbd9d9852bccacc61U, 0xbd8ea8683ba2fa52U,
  0x3ca0d82f3cba4609U, 0x3da94d29bd5a6591U, 0x3b2301e0bd871573U, 0xbdb4aed0bd03d2ebU,
  0x3d8904fc3cda68fcU, 0xbce613ff3cd636d9U, 0xbd6c718abd969421U, 0xbe48fcf0bd828da0U,
  0xbd410e053db5d2a1U, 0x3e01d4803dc4c3dcU, 0x3e04663dbc695049U, 0x3bc10eb13d44a065U,
  0x3d03921dbd74a953U, 0xbd85ab02bb5d2d34U, 0x3de3a9043c9609d6U, 0x3ae5784a3c928d1dU,
  0x3dd091e3bc930107U, 0x3da7b5223d50b02bU, 0xbdf1b07abbb1ff7bU, 0x3d179a0fbe20284dU,
  0xba8f65d7bce2de6dU, 0x3d2510f23e0b6254U, 0xbc02a4eebd417589U, 0xbd2e9514be0705feU,
  0xbd3f7a843d9146e7U, 0x3df53baebdc4b3dfU, 0x3ddac21d3d876219U, 0xbcffcee3bd33c2e6U,
  0x3d15722d3d0dffd0U, 0x3d03cfa2ba8b9eadU, 0x3da88e0e3ca75fa4U, 0xbc276ca1bce6acd2U,
  0x3dae56f53db28f9eU, 0x3d4065903c665862U, 0x3d76bfe53d686245U, 0xbd2421493cf08c2cU,
  0x3d150bc4bdd5b549U, 0xbc5916253d870428U, 0xbca5291d3d17d370U, 0xbe2222d83de9656cU,
  0xbd4b3844be07e9c9U, 0x3da3cf7bbdff18c3U, 0x3d352216bd39b377U, 0xbdbb5eb53dab2b8eU,
  0x3d2ef7febdc5c701U, 0x3dfe3ca4bdbc3235U, 0x3d0c47e8bdc44e5bU, 0x3d53906abd9d8da9U,
  0x3c21ca81bd5af4abU, 0xbcd45246be0b928cU, 0x3de7a7943d947e82U, 0x3cd272083cec47faU,
  0x3c42eef03d36e176U, 0xbd374375bdde661fU, 0xbe18c74bbcf985e4U, 0xbe5458673c14bc2aU,
  0xbdcdd6bbbe000c58U, 0x3d44f340bcd8ef0eU, 0xbdca39efbd4d97d7U, 0x3d964eb9bb67cff5U,
  0x3d0dd9cdbe5a8a67U, 0x3ddba6dabcf46caaU, 0xbe03397ebd715f04U, 0x3d810ae23d222d78U,
  0xbdbb64443cd12120U, 0x3b8effd2be12ca55U, 0x3de21b59bd6302b4U, 0xbc289101bd83de81U,
  0x3d35993d3da6067dU, 0x3df4022b3d871b1cU, 0xbe8863033d40e6e6U, 0xbe8f8ddb3c5a79c0U,
  0xbbd3bee93d16e353U, 0x3cd2e12e3b4c02e1U, 0x3ded9b793dba6b11U, 0xbd5a79a43dc20903U,
  0x3dc06ed7bd1b5aedU, 0x3d47022dbd274b50U, 0x3d371f673dbda6ddU, 0x3cfd53a4bc6c009fU,
  0xbc4204b13cb0a49dU, 0xbc83bd73bbc43467U, 0xbd942cd53d4eaf1aU, 0x3c705cd1bd46f60fU,
  0x3d3ae348bc8e44fbU, 0xbdb73e113deed455U, 0xbe57e2b6bc9337dbU, 0xbdd390fcbd9489c1U,
  0x3c4237c83e06122dU, 0x3baa9a35baa66bf6U, 0x3db709593d024b40U, 0xbd9912ca3d26a7d5U,
  0xbd7e3fae3e20db38U, 0x3d97311bbd0fc7bfU, 0x3e07c3013d82f7c5U, 0x3d96aaaebd2ee60dU,
  0xbd7d4999bc3f487aU, 0xbd992ea0bd9a8df5U, 0xbc47576ebcfa6a77U, 0xba8b3ceebc1beeb7U,
  0xbd8f22b0bcc4d95fU, 0xbd051cb3be033f88U, 0xbc5cc3e53d54b75bU, 0xbbc317a7bd11a600U,
  0x3aec2f11bdeefadaU, 0x3da50f59bddfbcacU, 0x3c11b6f1bd2322f9U, 0x3cc5a69fbe0bf089U,
  0xbd553e3dbdc600deU, 0x3c0557133c8da825U, 0xbd6a8b68be1102a3U, 0xbd8d1a303c415956U,
  0x3d1f182bbdf62087U, 0x3cd2fc7fbd2ea4b4U, 0x3d9a5c1b3dd493e5U, 0x3d83e7803d9209b9U,
  0x3ce564033bbb4691U, 0x3e015f203c57c897U, 0xbe545d28bd89446aU, 0xbe95aebb3d90dcb2U,
  0xbd8cdb653cbfc8e8U, 0xbd82e7d03e13461fU, 0xbce9a60ebd39db55U, 0x3dcbcef63d3bb66dU,
  0xbb0a3648bd5a13e2U, 0x3db233c3bda0f507U, 0xbe07f7d1bd46d9ebU, 0xbd509395bcc09768U,
  0xbc94ea5ebda64459U, 0xbd43a329bc918586U, 0x3d80fdedbd8436b6U, 0xbdf0b9633da84e13U,
  0xbced989f3d920683U, 0x3d76de723d8adbe0U, 0xbe5df52e3d103260U, 0xbe1e6acd3e1b2477U,
  0x3db058613e1204b5U, 0x3d9db76d3daec52aU, 0x3dd9a1f23de4e874U, 0x3dc73c3f3d534a7bU,
  0xbcf968993dd18d99U, 0x3ca6bf083d50fa83U, 0x3da539583dacf1d7U, 0x3ca7ad2e3d7c4e8dU,
  0xbd202becbd56e98dU, 0xbc889dbabd1ed112U, 0xbd81a778bd088915U, 0xbc2b3a75be17df70U,
  0xbd6497a4bd6d430cU, 0xbcb05d1fbc863ff6U, 0x3d4c3c47bd8c6a57U, 0xbd207202be71dae0U,
  0x3caae2563e0c2e74U, 0x3d69a63dbbd4bca5U, 0x3c6459403d1e1228U, 0xbd53453fbe15f398U,
  0x3e0f129a3e056a87U, 0xbcc6275a3c80496dU, 0x3d93c8353e2b97acU, 0x3d17d003bc922ee0U,
  0xbde9b47dbd2e31e7U, 0xbd0f24253d5ac960U, 0xbdd46777bda60b23U, 0xbd1a235abe0fed48U,
  0x3d14a6c8be14cd23U, 0x3c060f5d3cc2ea94U, 0xbe22a756be13cec0U, 0xbdc0a375be41bc9eU,
  0xbc406bab3e1a8796U, 0xbdf34cfcbe04d072U, 0x3dde1392bd9c4313U, 0xbdf41686be549a6aU,
  0xbdb390123dd8ea55U, 0x3cacc87abc58aef5U, 0x3dc30ee03d843441U, 0x3d327fa1bd9530a0U,
  0x3d8ea2dbbe361929U, 0xbd459e40bde36d3bU, 0xbd6e64ef3e01faecU, 0x3e1c9590bc7cee2aU,
  0xbd13ca6cbd54c379U, 0x3d81db8d3d14ffd0U, 0x3daa39703d111578U, 0xbcca2b7dbdbe270eU,
  0xbdf4a006bdf12d58U, 0xbd6bd5313cb66ef0U, 0x3d01e1c7be22e29eU, 0xbd596f2ebdc4e931U,
  0xbe0197a9bd744e28U, 0x3d2824debd0b87bcU, 0xbd16eb863d461442U, 0x3c81d4963c7b7ef3U,
  0xbbcd16d23d5f1d3aU, 0x3e166d25bdd3d88bU, 0xbe1ec4c93c29e864U, 0xbcec0455be00de6fU,
  0x3dd01ec33dd55f37U, 0x3e0d96d83dc0f031U, 0x3d8614533dea20a5U, 0xbd6f97e1be81a726U,
  0x3de5165cbcc4c463U, 0x3daa2ca53e1f3f54U, 0x3c80968e3e158408U, 0x3e123085be01a451U,
  0x3d26dcf6be5c548aU, 0xbe0b32e03d307f00U, 0xbd0ad6773cab8cfdU, 0x3c87ea213df46d79U,
  0xbe5ff8c9bd819c60U, 0x3d1a472abe22791fU, 0xbdb43b81bdb65032U, 0xbddffd40be26e2f5U,
  0x3c8f2f0abd832b3aU, 0x3c4800b53e01cba7U, 0xbb85674f3d1a7135U, 0xbd8e957ebe484b52U,
  0x3da3748f3c551807U, 0x3dd56a54bd443e2cU, 0x3cfb4d7a3cdae824U, 0x3cc1eff7bde8152eU,
  0x3c9da9dbbe15655fU, 0xbe10308b3dab2911U, 0xbd97b2363d3cc118U, 0x3d6fed47bd4bcf43U,
  0xbc3284c5bc684506U, 0xbd73c2203c1b7417U, 0xbd8e3b323d06b05fU, 0x3d8e9a97bd646097U,
  0x3b569d06bd44e884U, 0x3d912dda3d22a709U, 0x3d92bbe0bd905ea2U, 0xbc130a0fbe3daf1cU,
  0xbd866cbbbda02737U, 0x3dc429743d9ba237U, 0xbbc49393bddd6c65U, 0xbd200d60be064e5dU,
  0xbd5ec7ccbd7722abU, 0x3d95c496bd41e70eU, 0xbc942050bddc9702U, 0x3bbc6b03bd6eb4e8U,
  0x3cce469b3e17ad7fU, 0x3e1605fdbdd52db4U, 0xbd82ab1bbd19a223U, 0x3c38f5c0bd22bf12U,
  0x3e06c8a6bcfdbeb2U, 0x3db321b13daf4367U, 0xbc8e9c173e089dfcU, 0xbe71cb15bd9235f2U,
  0x3e197557bcf2a5dfU, 0x3d37f9513d8fb488U, 0xbc636d163c284595U, 0xbc769cefbe4a1b46U,
  0x3d93abbdbe332a6dU, 0xbd8e9b293ba05d4aU, 0xbd897885bbef5479U, 0xbd968bf33d5080f7U,
  0x3cde9a683de4df11U, 0xbd337894bdab951eU, 0xbdcbddab3d385240U, 0x3d13190d3c2d5888U,
  0xbd86c51f3c6145f4U, 0x3d71551d3e332f15U, 0x3d4890dcbe103d3aU, 0x3d845e01be60a446U,
  0xbcc0bde0bc7dcd7cU, 0x3dfe042bbddde926U, 0x3de9069f3befa3c3U, 0x3d9c9fbdbe6b9f6cU,
  0x3d81c320be1dacb2U, 0xbe5faa03bd026b82U, 0x3d07d5b8bcb64313U, 0xbd83c7703da024d5U,
  0x3de47763be1f5ad1U, 0xbd7044f03d4d85a4U, 0xbe126e053d66397bU, 0x3d67c6f9bbbdfffbU,
  0x3d51483339b21080U, 0x3e08cc713db4e9beU, 0x3d03c9b83d48ca2fU, 0x3d95eae7be580493U,
  0xbd54928ebd8389f3U, 0x3db1e7fbbd3d2206U, 0x3d6229293d98b4d8U, 0x3c7f6b4fbe071dedU,
  0xbc3514793bec6db2U, 0xbb02b2a5bc0d1773U, 0xbd0631bfbb8b5eabU, 0xbd675944bca7d642U,
  0x3d09acf73aaf0ef5U, 0x3d5b92ff3d9d092aU, 0x3d2ee3bf3d7bbf45U, 0x3d99d2f73c981875U,
  0xbc61496d3dab7a26U, 0xbd00769c3d718168U, 0xbd2538cc3dca5aa6U, 0xbe06e3743d0134adU,
  0x3c3b9fa83ded8dd9U, 0x3d94d0ffbd30dca2U, 0x3d43e8db3d62ce29U, 0xbc8733f83d06891bU,
  0xbcdb854f3e022efaU, 0xbcf5ebed3d5dcdafU, 0x3dd35b0b3df11b2bU, 0x3e145d6ebc82508eU,
  0x3d7deda93da4090dU, 0x3dc282553d8dc2f1U, 0x3d4e3b103d576fcbU, 0x3de20bbabd916b8bU,
  0x3c8932ad3d40a634U, 0xbccc5cb2bdd5a593U, 0x3dec108cb8f4c596U, 0x3d93fdf4bc806400U,
  0x3ce107143dd69a4fU, 0x3d509cc63d9c217dU, 0x3d64b30e3dd55352U, 0x3d09ce083d4bdbacU,
  0xbc8f8a763e04c5baU, 0x3d4cc6c93e064da7U, 0x3cb50fa53dd46fafU, 0x3d64ba12bcc575e1U,
  0xbd8573c93d6e1083U, 0xbca8c8e73cfdbd6aU, 0x3dbfd6523c08942cU, 0xbdb837723d2f00a0U,
  0x3c95d3ec3d1dbb0cU, 0xbd8d67c23c96745fU, 0xbd857f6e3b7fece8U, 0xbb997c913d578034U,
  0x3cb7acbcbe13fc13U, 0x3d8584673da684e6U, 0xbdcc26713d8796e5U, 0x3d9c3c54bd30f326U,
  0x3bdf069bbdbff8a7U, 0xbd964e15bcc4180dU, 0xbd835f583d1d3853U, 0xbc3cfc4f3d3ef773U,
  0xbe352f8f3db617adU, 0x3ca9766abdab0461U, 0x3e1db20fbd1c9f4dU, 0xbd9247a83e297e42U,
  0x3b293d043d7ec0b0U, 0xbd21302fbd19ae8aU, 0xbd8036a83dc41810U, 0xbe1cf04b3e41d6dbU,
  0xbc08402f3ca96f0cU, 0x3d48a7453d1b7e01U, 0xbd86cf31bd321070U, 0xbd38975c3e34cdbdU,
  0xbd259c98be17c3d2U, 0x3dada2db3d0d8090U, 0x3cd1d41d3cfce8faU, 0x3de1a70a3b97c37fU,
  0x3b8062683dd6dd7aU, 0x3d6d9f82bd792ff1U, 0x3da178053d5ab1afU, 0xbd851f943def9f36U,
  0xbdd225933d66e1edU, 0x3c6c95cdbccdc6eaU, 0x3b5454623cd2bf56U, 0xbdf849f33db5957eU,
  0xbd2b2538bd9edaeaU, 0x3c41d69a3b642dc6U, 0x3cce7b3fbd7dd563U, 0x3da6d6173e0eb534U,
  0x3c519fe5bdb6301eU, 0x3c372d203bbee838U, 0xbcd28687bdc836cbU, 0xbd8fc2c83d64d7c2U,
  0xbdbc6c5d3b476d34U, 0xbd806070bdd97b67U, 0x3b1ba7b1bdefb4ebU, 0xbe1f26d03dedec0cU,
  0xbdc7382abdb15877U, 0xbe1758093d316c00U, 0xbd3a0cc0be230710U, 0x3d3dd03b3d1a8ff3U,
  0xbd0efd72be1e9b1dU, 0x3c946f05be14a2cbU, 0xbdd0ec6cbde30313U, 0xbb83a2e43cecaf2fU,
  0xbc3baddcbe217a17U, 0xbc57ec1cbe10e74bU, 0x3e16c4fbbdc74992U, 0xbcb06685bd5f8ccaU,
  0xbd82a352bdd064f4U, 0xbe0703d83db4ee76U, 0x3d226138bdb95e10U, 0x3d69f4e1bd75db79U,
  0xbdbd47f3bdbb761bU, 0xbe1c9f5f3d21f2d0U, 0xbe012b6ebe498c21U, 0x3d868d58bc551f52U,
  0x3b33bab33cc755acU, 0xbdb80fedbdacdac8U, 0xbda46f6dbdb00e8aU, 0xbd0b32dc3d0a13abU,
  0xbd7e9fff3e46dc7cU, 0x3e00852bbc2fec28U, 0x3c31ce33bbb8e493U, 0xbab5582cbda9ddcaU,
  0x3c8d7535bdf2695dU, 0xbdfe881e3d813f18U, 0xbde3908ebdfa0203U, 0xbd966975bdb3779aU,
  0xbda87b42bd504581U, 0xbd3c45c1bd856720U, 0x3c0072e1bd6a84dfU, 0x3c85d85b3d285420U,
  0xbde7e0acbcc88f19U, 0xbe218a42bc523f55U, 0x3c18185ebcd734a4U, 0xbe1970b23d85fd30U,
  0xbde462e23d97c6b6U, 0x3b0703c43cc46599U, 0x3c0f1b913c2fe413U, 0xbc48c08fbdec9b2cU,
  0xbdbcabd1be37447bU, 0xbd3b90793d28a2cfU, 0xbe3efa8bbdc992f7U, 0xbdb42110bde04702U,
  0x3cb24b05bdf368aeU, 0x3c926a13bd7b1197U, 0x3d668c8dbd922066U, 0x3e1341d9bddedaeaU,
  0xbe0d1c803cdfc660U, 0xbdc8ed2bbd7063d5U, 0x3d7aff80bdb00287U, 0x3b1501d1be16df13U,
  0xbe0620733d51f77bU, 0xbdd5a2e1bdede23eU, 0x3d45b76f3da1b08fU, 0xbde0e8bbbd4eb161U,
  0xbdf3fe8fbded736fU, 0xbcf18cb1be3b66eaU, 0x3deeecb83d44c1fdU, 0xbd7d96693d99a353U,
  0x3d574a6dbd09d610U, 0x3cf24b0ebd3433b8U, 0xbe723befbccfdfdbU, 0xbdb94e553c8ffe3cU,
  0x3d02178bbe071c8dU, 0xbd8923473df7476dU, 0xbdbe27c9bd30cd39U, 0x3d1b54e73e28adcaU,
  0x3cc7933abdaf6a0dU, 0x3dd91dd33c6628f3U, 0xbd994769bdfcca52U, 0x3d2a5a96bd528765U,
  0xbc84bfbcbe057652U, 0x3d109eeebdddc6d4U, 0x3dd570a43dacfe7aU, 0x3dc503783d80b871U,
  0xbc1fd0a73dc4f31dU, 0x3d42f101bd4b970fU, 0xbd5dc2153d193b8eU, 0xbdc74cd3bd9f388aU,
  0x3d83a5b63d939d5fU, 0x3ca6cf7a3dd95722U, 0x3e01cf9e3d9a5cb4U, 0x3cd3a3e23e03bc9bU,
  0x3d981e3dbd230a9eU, 0x3dc59f67bd755294U, 0xbe123ce1bc8eb5c9U, 0xbc11de1dbd06655dU,
  0xbda8d37a3d539688U, 0x3dab399cbce58ab9U, 0xbcd802bc3c84cdbeU, 0xbdc89f23bc8546b5U,
  0xbc55dab3bdb7a5b4U, 0xbdc2c73e3e86e421U, 0xbdd040ea3d201e91U, 0xbdda1f70be12e68cU,
  0x3b2265b43d33a052U, 0x3db8113ebd792482U, 0x3e2a2f283d9774b1U, 0xbd71cc3bbdbb2c9dU,
  0x3d06ccefbda803ffU, 0xbc86d2223dc5f72eU, 0x3e0e74803cbd05cfU, 0x3dc6585a3d60d14eU,
  0x3d6135bcbdc0ad30U, 0xbe08d90abce71f53U, 0xbd567c9e3dad8551U, 0xbd457b5e3d7aabb1U,
  0xbc879cdb3ced24e6U, 0xbd9a2d34bd998a5bU, 0xbdfbf17bbde947e7U, 0xbda68007be234254U,
  0xbe094a22bd780543U, 0x3d023588bd43795cU, 0xbcb4ceb9be18240eU, 0xbda6a14bbd8e231fU,
  0xbdec2265bd87ae26U, 0x3d14635dbdb6f87dU, 0xbd1aa104bd39663aU, 0x3d220fd1be0db959U,
  0xbcfea0afbe335f49U, 0x3d41b5d8bd6e1809U, 0x3db257bcbd15a732U, 0x3d97232a3bac110fU,
  0xbd6cf6563dcd2047U, 0x3d9e7a47be0bfdeeU, 0xbcd6bbe8bd8a15deU, 0xbe74c494bdaeefc5U,
  0xbc3ddb8cbdb5fd6cU, 0xbd797edf3ceb6473U, 0xbdf525883cad36f9U, 0x3d808777bd1ccafeU,
  0x39a03f2abe05bbb0U, 0x3d744af3bd81ba48U, 0xbe6a351cbdb0d401U, 0xbce8f110bc961fefU,
  0xbd3a1e0dbccc6940U, 0xbd26a350bda3769fU, 0xb9b841f9bd0fe5ccU, 0xbe066dedbc95c928U,
  0xbc14ebe5bd561fb0U, 0x3db11e3b3dcf36adU, 0xbe43d8a33d2f1532U, 0xbe0e163bbd9a852cU,
  0x3cf6895b3db0d595U, 0x3e19f6ce3d87ee94U, 0x3e02d4cb3d38c1a8U, 0x3d15e523baf9cfd9U,
  0xbbe6604fbe0c1600U, 0x3d9487c63dbe5910U, 0x3def2016b931629eU, 0x3e33b8603ce53cfcU,
  0x3c7d4e83be422ad5U, 0xbd9c4d383b8d95d7U, 0xba96899e3cd3ef96U, 0xbdadc9e2bd249b58U,
  0xbc1457ccbca921b0U, 0xbd776619be21383fU, 0xbd1db7d0bda2b065U, 0xbc5c5689be2f870dU,
  0xbdcd598e3cc4b6e9U, 0xbd8cbee2bd873652U, 0x3b5bafb13c9c5bb7U, 0xbdca9874bdbe045fU,
  0xbcb8b2863d5af287U, 0xbc9a6fdb3b679b57U, 0xbd423a4bbd85d6f8U, 0x3af5c5593d1867a5U,
  0xbcc6368bbce4e8b6U, 0x3c8345a03d65643bU, 0x3aa970bd3db48e47U, 0x3c52476fbd890f40U,
  0xbd350b7a3dcc1c90U, 0x3d9afa65bcf1b8d3U, 0xbcb0e25fbcb48832U, 0xbd8d1044be1ff66fU,
  0x3baafeff3cf50edeU, 0xbd04ceafbd2060a2U, 0xbd9c7cfb3b8a3e64U, 0xbd5a7382bdf275a5U,
  0xbd4965adbd83e3d4U, 0x3ce8662abdb8e555U, 0xbdab91f43c9f7b97U, 0x3cd048c03bec8fd6U,
  0xbd11b7143b8cd091U, 0x3d3eb5d4be29f9bcU, 0x3bf1b74cbd820330U, 0xbc1318ec3d668083U,
  0x3e075da03cf68f1eU, 0xbb8022a73d9df59dU, 0xbe53c4ae3de47828U, 0xbeb6138cbd84a083U,
  0x3de463ed3dc46a7fU, 0x3dd268363cc41cb6U, 0x3d18b92e3d85a5fcU, 0x3ca8c8f73d9784aaU,
  0x3d8b629bbe61f448U, 0x3dfd96f33c95af0eU, 0xbdf0ed5abda49668U, 0x3dbf27243b1c4afcU,
  0x3d3dd879be3b4fb3U, 0xbde8a33ebcff04bdU, 0xbdbd912fbd9ae218U, 0xbdb4a6d03cb0b887U,
  0xbd1de699bdfe804bU, 0xbd4f7cf7be066270U, 0xbdfad1713d17f340U, 0x3ca7528ebdc230efU,
  0xbd4b3cb2bd6affadU, 0xbd7c3f363d1dd907U, 0xbd4607cabdcea6d2U, 0x3cfd80aebd077959U,
  0xbd86175c3d401b8fU, 0x3caa1dda3ccb1574U, 0xbd42a9fdbd73a914U, 0xbc7aa720bd994147U,
  0x3cb0a201bdefe378U, 0xbd7bde303dc5f98bU, 0xbd25de95bd73177bU, 0x3d858fefbd2dec19U,
  0xbcc528243c1c67c6U, 0xbd97d70fbdd6e182U, 0x3db39bcebda81eb0U, 0x3db5edc7bbf8426dU,
  0x3c96b0123dc4f1b2U, 0xbde987e8bdba5a00U, 0xbde38a513d53d719U, 0xbdabb449bd06b1fdU,
  0xbd650cf83e23b570U, 0x3d114648bd8d6fe9U, 0x3cbb334b3d916244U, 0xbcefb9a8bdaa910cU,
  0x3e1bd310bdb8b728U, 0x3dbbdea33e394d07U, 0xbd7c024abb9a03ccU, 0x3d54e737bba8a197U,
  0x3db6c558bccd6b5eU, 0x3c071f1abe6d656eU, 0x3d24776c3da0cc4fU, 0x3e2e2175bdcf4070U,
  0x3db46e31bd18260cU, 0xbce6232dbd61f7b3U, 0xbd1a3410bd03ab5bU, 0x3d843bf3bd9980b9U,
  0x3d3def1b3deda98dU, 0x3d27990d3daf3c03U, 0xbdbc08183d65dc84U, 0xbd968ac03b97460bU,
  0x3de4b7f6bd3cb2c9U, 0xbd6e4d3b3dbd3462U, 0xbe3ae111bb85071cU, 0x3dd8e1b6bea7e9c2U,
  0x3d976043bd70c0f7U, 0x3c5daf64be138b46U, 0x3d9b12a03e1ab3f5U, 0x3d8f5a18bec177c3U,
  0xbca4ac1dbdb7b63eU, 0xbdb0d0b5bd1535c2U, 0xbd98ea73bd14c5ebU, 0x3dd41e00be8bb6a1U,
  0x3cd96642bd8a3fe3U, 0xbd9f9b9ebc4fab02U, 0xbe1b9bfcbc285589U, 0x3bc47a763d65db1dU,
  0x3dc62c213df175a0U, 0x3dc2a5043e13f8feU, 0xbc868629bcae0869U, 0xbc346ea8bd97fee4U,
  0x3d292aba3b21c557U, 0x3ca216303c1da667U, 0x3ba6011c3dfee5a9U, 0x3e25a4a7bd999a0aU,
  0x3d03e4c6bcc2e64fU, 0xbd4b81313d704961U, 0xbd9e600f3c705a0eU, 0x3cd61f1ebdcaea66U,
  0x3bb32c243d804113U, 0xbce1e1203cc8f7f2U, 0xbe0bcef83d9b7d5dU, 0xbd6193263d1be22eU,
  0xbd76d2433e2738f6U, 0x3ddcf9f83c19423eU, 0x3d38cb5bbc0247ddU, 0xbe036404bbeb9a83U,
  0x3dad085f3d2d988aU, 0xbd2124dabd0ee1d8U, 0xbd5469993dc1a0beU, 0xbd5adb673ddb9697U,
  0x3deca701be47eae8U, 0xbdc68a5f3d336417U, 0xbd262d59bcc4123cU, 0x3d9f77543d814a86U,
  0x3db83e4dbdf8e16eU, 0xbe0105643d25765cU, 0xbe251c7abba9da77U, 0xbc5b01323d150e1aU,
  0x3c1aa5c03b24029aU, 0x3d96a0953defe27aU, 0xbe0748313d81515aU, 0xbde51172bc814921U,
  0x3cc120173cdcd660U, 0xbd07f2e73a3261dcU, 0x3d86be183ca1e258U, 0xbc81f2d6be09176dU,
  0x3d9e355fbd29abc4U, 0xbce08afe3dca88a5U, 0x3d9c25103e04b390U, 0x3def5ca6be242737U,
  0x3d037886bdf6bbf6U, 0xbc4a205c3def28a8U, 0xbdcc43ea3d608c8aU, 0xbd176d323df4314aU,
  0xbe128a5d3e1cc038U, 0x3a8b70b4be320404U, 0x3dee704dbdde61b9U, 0xbe1fa07b3e1b8792U,
  0xbd0c46e0bd66d386U, 0xbda8e0fc3c8753a5U, 0xbdcd4a04bd124f4fU, 0xbd64a0cb3da69115U,
  0x3dc70a113cdf5da7U, 0xbbad6705bd57c1f3U, 0x3d116c863db12910U, 0xbc9b3deb3cf28aa4U,
  0xbd483155be7234b5U, 0xbdb10e3fbd45e017U, 0x3d59db8f3c301d5eU, 0x3da3edd6bcc051c8U,
  0xbe45546fbc31e14aU, 0xbcd2566cbddab430U, 0x3d506b17be35bdfcU, 0xbdfca0723df695ddU,
  0xbbd62de5be0c5f5fU, 0xbd8317a33c57f602U, 0xbe166892bdd238d3U, 0xbe2abdf03d35fa5dU,
  0xbcc37c62bdb7df86U, 0xbd71250d3c8d1bfbU, 0xbd04f276bdc9349bU, 0xbcf959493ddfb638U,
  0xbd9bdbb7be491868U, 0xbdc435cc3d0cff25U, 0x3d6201c2bd8c082bU, 0x3c67ca62bdd0ae45U,
  0x3d9b64a83d217727U, 0xbcfbea4bbbe0c267U, 0x3dc4b3f7bcab1621U, 0xbd1bfd953d9e5472U,
  0x3ce4da743d1f5a8bU, 0x3d722513bcfd7554U, 0xbcd831d03ccec76aU, 0xbe0818f9bdbcf05cU,
  0xbda64422bd5e21f8U, 0xbc2448ff3dc4c803U, 0x3d05a8c3bb7d3c80U, 0x3dbc3335bdade674U,
  0xbda455dbbdce61b5U, 0xbd53f620bcf027e3U, 0xbd755982bdc380eeU, 0xbddafbb9bd974833U,
  0x3dc07d223db7ca7fU, 0x3cd710acbdd77550U, 0xbe0c45e83da75098U, 0x3d18994bbd3be14cU,
  0xbc1f65cf3cabc2beU, 0xbd8910423e555877U, 0xbb86b0403d8ac475U, 0x3d3c65febda1f9deU,
  0xbbf96cec3dc43b33U, 0x3e17a2583d30049eU, 0x3d811e213d02661aU, 0xbc21e621be0739c6U,
  0xbd954811be256e2eU, 0xbd639d13baf6e4caU, 0x3d238dafbcc1ae1fU, 0xbcbaddf73d33fd7bU,
  0xbb382d2b3d408bcaU, 0x3c2696143ca2ecb2U, 0x3db404c93c23e8a2U, 0x3dbd7d5a3cd788c0U,
  0xbc924837bbca1570U, 0x3d256790bdad1b2fU, 0x3e109e9b3d8f66c4U, 0xbd58cfc23d145204U,
  0xbbc7674bbd7d9b8bU, 0xbd0b22cfbbe50940U, 0xbcd999ce3cb3c219U, 0xbdb06bb53d82d4ccU,
  0x3c964aa6bd987a03U, 0x3da302b9bd9020ffU, 0xbcb02517bd8141ceU, 0xbd2b1417bdd51875U,
  0x3e2428dbbab371b8U, 0x3d233bbb3d467497U, 0xbd4be0513e0d6267U, 0x3dc85b643cce973cU,
  0xbc263a3c3de06f1bU, 0x3da8c1ec3c9b2fbaU, 0x3c598c443c86ac88U, 0xbccd5be0be3285f3U,
  0x3cd4bad4be283c00U, 0xbd863a5c3d83c8d5U, 0x3b431e133d14d84fU, 0x3cbb2d90be2f491dU,
  0xbd7a9784bdf7fd06U, 0xbc6b34553d8251a4U, 0xbe36073f3b97131dU, 0xbd6c3bd53cd64d88U,
  0x3dbdccb83e07ffb2U, 0x3d37ced8bc8030acU, 0xbdaa31953d6a7efcU, 0x3da8ece7bba6e5afU,
  0x3d97ffbebd7722e6U, 0xbd6ab71a3e38a784U, 0x3dff79e53c32a2daU, 0xbe3a808bbe265eccU,
  0xbb1938cfbbbe12d0U, 0x3df474ba3d818fecU, 0x3d2dee123daa092aU, 0xbde54ac4bddc4601U,
  0xbcaeb866bdeba5b1U, 0xbd772369bd41bd3eU, 0xbccf3bcbbd4cc40aU, 0x3d8ce034bdb4d4c6U,
  0x3e1c1b193baa132aU, 0xbdcb13bcbd88ff18U, 0x3d8631e23da171edU, 0xbc9a5fbc3dd59c2eU,
  0xbac09d41bd8953bbU, 0x3caa77b23ddf1e98U, 0x3d8a9dcebbeb7bbdU, 0xbdbeff41bd3ce5cdU,
  0xbd9c4c62bd92f699U, 0x3b5549513cc074feU, 0xbd802773bd03c4ddU, 0xbd051143bdc15f8fU,
  0xbda311a23cdcaf10U, 0x3da6cfd53c766641U, 0xbca6e4823c1129b3U, 0xbda10e1abd0cb765U,
  0x3e1bb1e9bc8bd02eU, 0xbbc74ee0bd9b38cbU, 0xbc9929b53d81c9b2U, 0x3daa2c39bd724ae4U,
  0xbd6f9ee73dd2307dU, 0x3da7614e3e363ef1U, 0x3e47490e3d50225fU, 0xbe2f23f8bda6e7e8U,
  0x3da680f7bd8c190fU, 0x3dade0da3dda070fU, 0x3da786cd3c5d8276U, 0xbce1944abe041c36U,
  0x3d3fe6b3be8784abU, 0xbbb21555bd8c5158U, 0x3d0ce583bc81ccc1U, 0xbdd36029bdc5c157U,
  0x3d06e66cbd8ac3ddU, 0xbcab3a513cc9ca42U, 0xbd7617fc3c9cac44U, 0xbbdfe9a4be050393U,
  0x3b795c6e3ca4c685U, 0x3d6d68cf3dbf3703U, 0xbddb084cbd91f438U, 0xbdea79b5be15c1afU,
  0xbd7962b93d253d72U, 0x3c01644f3d816cf3U, 0x3e0ba3203d9bb647U, 0xbdc2be47bdd7792cU,
  0x3c8c9b18bdaa0916U, 0xbac424043d0b9e3bU, 0x3da78a61bd804d22U, 0x3d0314be3cf539acU,
  0x3d79c37abd858c7eU, 0x3ce5785c3e291addU, 0xbdec15133cba85cdU, 0xbc33606b3cf1dd3bU,
  0x3d8f312f3c9de6dbU, 0x3d88b96dbc11d50bU, 0xbd4f3d53bca8056bU, 0xbd2dd2813c53d83eU,
  0xbcf7735b3d854a39U, 0x38d091463dae5b0fU, 0x3d07f48abd22de41U, 0x3d40a06e3c88656aU,
  0xbd8080ad3d711054U, 0x3dde9bcf398f1ca1U, 0x3dbc9ad9bca31db2U, 0x3d664b9c3d3d59dbU,
  0x3d65d6413d8e9f60U, 0xbd5908ae3be0140bU, 0xbbc03be6bc9d0798U, 0x3adc94bdbdc154a6U,
  0x3d248523bdb6e790U, 0xbd295ff33bb4488dU, 0x3de58cfe3d7042e7U, 0xbd973e10bd1ab000U,
  0xbc6df1e43d0c8785U, 0xbd4bab11bda53fc3U, 0xbb9ef9583c9d27b9U, 0xbd811122bcc26de4U,
  0x3d158e7d3d884c75U, 0xbdb9bd7c3c11bb9eU, 0xbd44168dbd98f445U, 0xbcad7029bd2020cfU,
  0xbd9ac741bd778e83U, 0xbd37a26f3dc1081eU, 0x3d6b3738bdbff7d1U, 0xbcf25aa1bcb0af5bU,
  0xbd843c49bd9438ccU, 0xbcabb4fcbd741327U, 0x3cbb8c30bbd428f7U, 0xbc8d5cb1bd49719aU,
  0xbca95f0ebc58c9edU, 0xbd4b2278bdb21980U, 0xbd8aafcabdba2c8bU, 0x3d37b6bfbd8b6238U,
  0xbd6aa1e83d6ab61dU, 0x3d8be671bd82c5b7U, 0xbd2476b2bc2381faU, 0x3d96d496bc85c9e5U,
  0xbd6e641cbd3cf328U, 0xbd94bfdfbacf48bdU, 0xbd9667dfbca6d35aU, 0xbcb17f4b3b531d75U,
  0x3c50fc1f3a8bacfeU, 0xbd9614c23d5815b7U, 0xbd941ab0bb1ca487U, 0xbdae2be5bc8bcf35U,
  0x3ccc7541bb1e9c8bU, 0xbcc83591bdc5a3bcU, 0x3d30f5dbbc52fb78U, 0xbb537507bd46437bU,
  0xbd9d4dffbb8cb472U, 0x3d813531bdc16bffU, 0x3dabded23ca1f7f4U, 0x3d8a0d7bbbed4f2fU,
  0xbd965b28bd399789U, 0x3c85eefabd9a047eU, 0xbda10ecebd768509U, 0xbc992273bd8fdf1cU,
  0x3cb84b5d3d5a0900U, 0xbdbd2ac43d723736U, 0xbdbec9123d35ecabU, 0xbdc7c0f4bc645342U,
  0xbdbcc2d73d99696fU, 0x3dd967babda83bf8U, 0x3dbd9f423d5d5c49U, 0xbde092a4bdcf391dU,
  0x3d7b91f4bdb26086U, 0x3d5da649bcf4a582U, 0x3d6399a53d8ef78cU, 0x3dd0141d3b1358b0U,
  0x3d49ed0dbc59f799U, 0xbddbac483d514367U, 0x3d2fad0b3d2a68b8U, 0xbb288588bca37cdbU,
  0xbda33fddbc0680c3U, 0x3d12f1b9bc00ad87U, 0x3dab427cbd7ad4bbU, 0x3d947c9a3d16a078U,
  0x3b311384bc8ffdf7U, 0xbdaceac3bd0481acU, 0x3ce042c03d523dccU, 0xbc20c53b3c75a1c8U,
  0xbd56d5d6bc8d0141U, 0xbc01bb20bc917898U, 0xbd77200abc13267eU, 0x3cf4836a3d652299U,
  0x3d581ef33bc75d7cU, 0xbd12ed583dac5f1fU, 0xbcbdf421bd2734f8U, 0x3cd418dc3d9614b8U,
  0xbd14220bba72c59fU, 0x3db914363d04a530U, 0x3d85743b3dccb821U, 0xbc390f9c3cfa841cU,
  0x3db0fa49bcccb1d5U, 0x3d430c633d7026a8U, 0xbd3e7c513dac941dU, 0x3c2a60b43d8278cbU,
  0xbcb0d18e3d35476cU, 0x3d80fb253c5b99f7U, 0xbcb79062bc53df24U, 0xbd820a73bbbe4b49U,
  0x3d690a7cbd0f2789U, 0xbd04caa73d3a94efU, 0xbd42b1f83d9f11adU, 0xbd9dbb173d1264e0U,
  0x3d3f87cebcda5a6aU, 0x3c8b538fbdedb326U, 0xbdcd5a4fbd3943c8U, 0xbe0416a33db95f20U,
  0x3d6515903d8d5e5cU, 0xbbdbb1a33ccd86f0U, 0x3e016de43c25b563U, 0xbcad07f53cd821fcU,
  0x3d902e94bb259b73U, 0xbb24f83ebcadd8f7U, 0x3d3353ec3d9bf401U, 0x3dbf8648bd29c897U,
  0x3d07d4193bc034d8U, 0x3d42f138bcb81e58U, 0x3aa9eedcbc71ad66U, 0xbd6f946bba55037bU,
  0x3d6615debda64d0dU, 0xbde1d797bd803a59U, 0xba8cf804bd114e93U, 0x3db29e5cbd16fa39U,
  0x3d9d00c2bd400170U, 0x3cdec3d7bcb20e09U, 0x3ca5f07b3d6257dbU, 0xbdc13e2d3a24795bU,
  0x3d9bb0b53dfd7af8U, 0xbbca30fe3d92b7f2U, 0xbcde12223dca766dU, 0x3c50f6583d9bb1d6U,
  0xbd5eb1dfbd934b38U, 0x3d4ef8033d85219aU, 0x3d824cdb3d801ac1U, 0xbde37af5bccaa4a3U,
  0xbca83b6c3d629823U, 0xbde30097bde4f9dcU, 0xbdf111973d944ca6U, 0x3bf63c4f3d916c27U,
  0xbc58beb8bdecd164U, 0x3c316825bd235170U, 0x3d57ccf9bd7a937bU, 0xbd792e75ba9bae42U,
  0x3d54035abd60210fU, 0x3c973eccbd502da2U, 0xbda484733d3acb09U, 0x3da728fb3cc8c44bU,
  0xbd4ed5ea3d2fe053U, 0x3e24c865bcea09d7U, 0x3bd1814e3d8f72bcU, 0x3de6246f3b5851b3U,
  0x3cd17d2b3cf74346U, 0x3e394b7b3d8f03d7U, 0xbc24af7dbc01e320U, 0xbdc80294bc90790eU,
  0x3cebd57dbd7ff86eU, 0x3de8669c3dd7be83U, 0x3d0e63873dd8e298U, 0x3dde76f1bc3eed78U,
  0x3d75037bbdd5312fU, 0x3cc999c73d91c382U, 0xbd17f3513d1c7a4fU, 0x3db7d7813e1190f1U,
  0xbd89bc6dbd68ccbaU, 0x3dff854bbe97555eU, 0xbd911563bc640019U, 0xbdff0716be0644bfU,
  0xbd4eaa46bcd9d57fU, 0xbdfa28973e547277U, 0xbcb9a9ef3d1da15eU, 0xbdeb09f3bbfd5628U,
  0x3d3f780d3d0b7e41U, 0x3dec10afbdd3fb4cU, 0x3e51271cbc804e0cU, 0xbda2f9153c9b7ad3U,
  0x3dac87f2bdd65764U, 0xbe1e8a21bc5943f9U, 0xbd05563fbd889fb0U, 0x3cbfbab43caa5bf0U,
  0x3df60e2fbd47cc2aU, 0xbc68d1423d013a76U, 0xbe01a0243d2cfabbU, 0x3dc2a7fcbdaaec59U,
  0xbdeda7503d830c66U, 0xba92cbbb3e096008U, 0x3ce3bfedbd3d45d1U, 0x3c1799c8bdd26dfcU,
  0xbcf67311be18e9a0U, 0x3e30c638bddf17d2U, 0xbd8bb2cfbe0fae92U, 0x3cd69d66bd6aa2e8U,
  0xbe3284593c9e3eafU, 0xbd1b57f6be2d567fU, 0x3cdfd2a6bd0891e1U, 0xbc44dba23d68ebe5U,
  0x3db71e1f3e4622c6U, 0x3b4f3eb2bdf779d4U, 0x3def7138bc7e6868U, 0x3c868dda3d962f2cU,
  0x3d6a96183d8dbd1cU, 0xbc5712fd3daa1ae9U, 0xbd1889253dab56daU, 0xbcadd1f13e029f4eU,
  0xbd1238a9be04f557U, 0x3e0922393c8c63aeU, 0xbb7335223d9c3910U, 0x3d31659b3dfb4318U,
  0x3d830aebbda428bfU, 0xbde3adb33bfadd97U, 0xbd206ee9be049f2fU, 0xbd8f2046bd76873cU,
  0x3d8cc80fbd3a3388U, 0xbd904107bdb5b4beU, 0xbbd9055c3cef765eU, 0x3d017cf9bcad6663U,
  0xbd1f1d32be1c7080U, 0xbdb7f511bc4a595eU, 0xbd67cd27bdae5324U, 0xb9d87197bca5cb17U,
  0xbcaa8873bd045db8U, 0x3d0a7af9be69b429U, 0xbc920c4abe0c9154U, 0xbe256b2cbbefb29eU,
  0xbdfe6dbbbe0a00adU, 0xbe4658cdbe11dc23U, 0xbd6b4ff2bd9a337cU, 0xbd8060acbdc65027U,
  0x3d3dd9fdbdf78a2dU, 0xbbff571dbcdc78a9U, 0xbd8e5697bcf58d2aU, 0xbd78f711be02fe74U,
  0xbd88a1a7bd9fa27bU, 0x3d9ff611be3ae210U, 0xbd3d67ff3c72fe6dU, 0x3c46f42fbe430036U,
  0xbbc1a73b3ab2369fU, 0xbe06c17b3aee5075U, 0xbe3cda6fbdf7bc3eU, 0xbd5a1aefbe117337U,
  0xbd230ca4bd9e22edU, 0x3d37ac9fbde7012fU, 0xbd81d214bc331cc4U, 0xbc01bd8abd9c5ac3U,
  0x3e07b7f0bdac9f93U, 0xbd1862c2bd7716f8U, 0x3d6ed8a6bd051752U, 0xbd4d02163dcb9cb5U,
  0xbd95fe8fbe5bfb41U, 0xbdf904043d5940a1U, 0x3dbae828bd4c5c07U, 0x3dae280cbe11c16fU,
  0xbc9bffd83ab2dfcdU, 0xbd9b7f5cbe432513U, 0xbddf63f2bd398550U, 0xbd2321d03d4dd645U,
  0xbdf307e23da6a4eaU, 0xbdee9eafbd8a556fU, 0xbcca246abd3897f1U, 0xbdc635e2bdc7c024U,
  0x3e30513bbe440c8fU, 0xbbc451b53db49fa4U, 0xbdc7540e3da53d8cU, 0x3dcbc7f6bd9f1e9aU,
  0x3d260f0c3b84d573U, 0xbcadaeaabdf4d082U, 0x3e30bcbfba0bd275U, 0x3e5afd67be95e417U,
  0x3d455d7abcd691fbU, 0xbdf19357bdab3c09U, 0xbd6e93ddbd3ae6d5U, 0xbcce53ccbdc15db3U,
  0xbd09fbd93d349219U, 0xbc7a65fe3d0e32feU, 0xbcfbebe53c554013U, 0xbd8b2d733d55dd9aU,
  0x3d132b013cdb58c0U, 0x3cf469f23de13f63U, 0xbd9a4eb63d82391eU, 0xbc5d5524bdcf7d88U,
  0x3ccad0743d37d9fbU, 0x3da3ec2ebb812d8fU, 0x3adfa6afbd86b3f2U, 0x3db01c4fbe04fa54U,
  0x3d45aadf3da1a046U, 0x3d2de4b13d38b46eU, 0xbd80aa3abb29a7e5U, 0xbd4c2de7be070730U,
  0xba30aecd3d962336U, 0x3da47d3c3c15c855U, 0x3d80816f3d98cbecU, 0x3d2b9a6f3c628801U,
  0xbdd413c33de18f7bU, 0x3ba3ed9abe24cf6dU, 0x3d2bf72dbd778db2U, 0xbdd64ced3d212ae5U,
  0xbdef74393d971943U, 0xbd4eb9df3e19d0b1U, 0xbe051a81bd79fa7fU, 0xbc894993bd4ac23cU,
  0xbc2864a8bdbebc16U, 0xbcc504df3d9fdd2cU, 0x3d90cb1a3bd62192U, 0x3d2b1b8d3d934bf8U,
  0xbc21b626bd50c240U, 0xbca72751be041c04U, 0x3d9762f8bb351231U, 0xbc823845bdcb8c4eU,
  0x3da73c4dbd0cdf7aU, 0xbdac86423d10c67fU, 0x3c33c76c3bc31fcaU, 0x3df2acd43d365defU,
  0x3d6606d0bcc96a27U, 0x3d15e489bd9e6d91U, 0xbaf5f4403ccfb467U, 0xbe02b10a3d0883a6U,
  0x3b69c37abc9eea25U, 0xbd4754133dd8a752U, 0xbd471959bdd43f3eU, 0x3ca4b6183c65e68aU,
  0xbdc747143be2037eU, 0xbd3d2dd5bdb84141U, 0xbdb546a7bd6cd0beU, 0xbdd960193d3ac637U,
  0xbd0cfcb9bd57f65eU, 0x3b3d8e333d043fccU, 0x3ca3807e3d2b6e84U, 0x3d3cbbbebd933b8aU,
  0xbcb8ec1c3d6951dfU, 0x3d2efba03d9ceccaU, 0x3d5061a33d4082a8U, 0x3c62ba13bd15ed9aU,
  0xb986bad5bd931764U, 0x3b0e8f6b3dd0ca3dU, 0x3d03d4223d0d6d97U, 0x3da09169ba013c0fU,
  0x3d716c0fbbcef6aaU, 0x3ca6518ebc2c4469U, 0xbd6359a5bd42b333U, 0xbd96aa543d6467eaU,
  0xbd715f9ebd8e1959U, 0xbd434949bd06c9deU, 0xbe024bf4be0ebb0aU, 0xbc072ee6be0e8761U,
  0xbc92b996bc0dfd66U, 0xbdcd44a6bc16a562U, 0xbdcb9229be1f4ee4U, 0xbd8d66c5be0a6387U,
  0xbe1043c43ccf2c09U, 0xbda754a8be274304U, 0x39ca451abe02739fU, 0xbe257d5b3b2ed138U,
  0xbddb29a33cba3637U, 0xbd53946bbc5dd812U, 0x3cadd722bda65f72U, 0xbda0138ebe041fcbU,
  0x3d8ed733bd826f16U, 0xbdc959fe3d3e3822U, 0xbcb55a243c30c869U, 0xbc5633ea3d00a376U,
  0xbc4eaa4c3ccf80ffU, 0xbcfd9352be110fa2U, 0x3dc8595e3da556f4U, 0x3d298be0bd8e5348U,
  0x3d0ceb5cbdca0e79U, 0xbe06ae6b3cb2c710U, 0xbd209de73c759802U, 0x3d85e480be12794bU,
  0xbd0a0e74bdba85a9U, 0x3db57261bcf6a9d1U, 0xbe1d43b03c496fd7U, 0x3c0df867bdc503eeU,
  0xba50f5b83cc04707U, 0x3d6d75fa3cf555fdU, 0xbda792cc3d720557U, 0xbd2a0e9ebddd747fU,
  0x3d49c8f63d3ab325U, 0x3d074aaa3df81a72U, 0xbd8a12cd3d021c53U, 0xbe49b718be329518U,
  0x3d94f8ffbd9de0ecU, 0x3d88cefabb8f17f7U, 0xbce11f28bc097cdeU, 0x3d0edf93bdc4a5d7U,
  0x3dc1d8b9bdef0f62U, 0xbc71054bbd40880aU, 0xbd1f94c1bc9e6e31U, 0x3d161b07bcb7e619U,
  0x3cf763013d17b88eU, 0xbad28baabd8253f4U, 0x3d194a50bc048defU, 0x3d6dbc793ca7e7d0U,
  0xbdc874ecbd80085dU, 0x3cb596573df4a5c4U, 0xbd64ab89bcea50f6U, 0x3d8fedee3d557678U,
  0x3c895d5f3dc2741fU, 0x3cda2a093d01e33cU, 0x3d8281103cae9ac1U, 0xbd4ded8a3cf2c48aU,
  0xbd152bc8bbec1962U, 0xbdc4b207bd08d5d8U, 0x3dc865c83d650ef5U, 0x3b254f82bcd3535dU,
  0xbb47fb51bdea25b9U, 0xbd638d793da37386U, 0xbc5467f23d16cd7aU, 0x3cf5e625bd5f85a9U,
  0xbc77a5423c832b94U, 0x3de100a53c28c11eU, 0x3dac981a3da3b4a0U, 0xbe0836bcbdf130cfU,
  0xbd26a076bddc5225U, 0x3cde503c3ca5da33U, 0xbd94b0603cbcc0a6U, 0xbb919c5cbe25fc9bU,
  0x3d410782bda6dd95U, 0x3d022af73d631b6dU, 0xbd903b75bc58fccfU, 0xbd7b95d83d3d58f2U,
  0xbda433393db4ffdbU, 0xbbb651d1bb8804faU, 0xbdd53e6d3bcf7d9aU, 0xbdc0621dbddac3d9U,
  0xbd48cf8b3cb33ef4U, 0x3d1e85653d805587U, 0xbe2c9a97bd9be2bfU, 0xbeaaf9cbbe121fd6U,
  0x3d5a63493d835333U, 0xbd9439873d4a4664U, 0x3db93364bcb4419dU, 0x3cd2fc80bddf2cc4U,
  0x3bc5e797bdd55945U, 0xbdb5b16a3d84f916U, 0x3d751984bcf795feU, 0x3cb8e237bcbce2f7U,
  0x3de3605ebd81773eU, 0x3c63ee02bbfca7a0U, 0x3e1c3b2f3df53e37U, 0x3dc7cc4d3dd74661U,
  0xbd245d813dc29a55U, 0xbcc3af25bdc8d517U, 0x3d9da3eb3d7ccf84U, 0xbc2222163ceb86b9U,
  0xbd296b3cbddb9e07U, 0xbcf8a2513c76edbbU, 0xbd111af7bd987908U, 0x3d8f118e3de2be3eU,
  0x3d53c3ea3c2ae8c7U, 0xbcdabcf43d3efbaeU, 0xbda0e555bc58b3f5U, 0xbdb47085bdbe391cU,
  0xbdf5debcbbdd1418U, 0x3cbf09e1bd54ff2cU, 0xbda710bdbdfa0bf3U, 0xbe13a59dbd3e29f4U,
  0xbc010bffbd4c4456U, 0xbe1fea2d3d4f3577U, 0xbd3abacebda53b75U, 0xbdf9faa03ac4e4d9U,
  0xbd1184fb3cef3102U, 0x3da296c0bce6d64aU, 0x3d9bfd8c3d3eb09fU, 0xbd468c5c3d50361bU,
  0xbce218b3bda5005dU, 0xbdb94a553d3cb111U, 0xbd2ac5b33c763c6aU, 0xbe020a353d1d21f9U,
  0x3e0962a5be1e5208U, 0xbdb80fff3d01b343U, 0xbca2c6203df0bcdaU, 0x3dd4c6a0bb7380bfU,
  0x3d9059643d7233d1U, 0x3e052e8f3caba910U, 0x3e8e09a83e1d981bU, 0x3e2e4491bd97a464U,
  0x3cc9d50e3d998494U, 0x3d24a4be3e09c851U, 0xbbbcf25e3ca87086U, 0x3dcc9933bdc0b40aU,
  0xbdaa60723d54352dU, 0xbc9788c0bcaa46c5U, 0xbe03a04b3de14b26U, 0xbda69cd5bca50142U,
  0x3bd0afc63c23f3b9U, 0xbce8a0933daaf4a2U, 0xbb2d40f9bc8bf4ceU, 0x3e0fc1433dbb1721U,
  0xbd17b23abcd38874U, 0x3e1daa383c6ddd3bU, 0x3b1e6c7e3db069c9U, 0x3b6436e83dd4d15aU,
  0x3d58cc613bed1b91U, 0xbd9dd6463beb2071U, 0xbaee7668bd335215U, 0xbddd08f83e2a7335U,
  0xbd8342053dc045abU, 0x3e0e1f47bd6c880eU, 0xbcba26de3d49f835U, 0x3d83c81dbd759354U,
  0xbdf301b5bd855aabU, 0x3ca16900bda8ab3eU, 0xbd9794e3be301662U, 0xbdf5a2fdbd9871a5U,
  0xbe26047c3b77b3c4U, 0xbd8c6b913d8cae10U, 0xbd3cbfd1be380f9dU, 0xbd7df86cbe07ce4fU,
  0xbd8e03a5be0e0e46U, 0x3d2de27bbcd088f9U, 0x3cabd8f2bdc8ea89U, 0xbe20f7efbce1676aU,
  0xbde372c1bdb93b81U, 0xbe04f5d0bc93322bU, 0x3d8742dabe37abc1U, 0xbd9fc9eabddc3556U,
  0x3daf4b203c3da02aU, 0x3b37a31e3bcf7766U, 0x3c038adb3df1ffe5U, 0x3e40841e3d32a2a5U,
  0xbd12ec663d4ae770U, 0x3e2bb49cbd47b09cU, 0x3e4715df3cc484f9U, 0x3c1c6fcbbd5162ebU,
  0xbcd961f4bde94d63U, 0xbd7efe1f3e2556f6U, 0xbd1feaddbddf110aU, 0x3e1a3f7cbd85503aU,
  0x3ca1ddcdbe1ce6e2U, 0x3e2961efbde303e4U, 0xbcfad800bd3fc04eU, 0xbd51a88c3d95aaa4U,
  0x3c4e12803d5a3153U, 0x3e0491e73dde701aU, 0xbca753b0bd96d0ddU, 0x3cdeae04be12d480U,
  0x3d6457b0bd57dc92U, 0x3c90b37a3db65601U, 0x3cdee8f13d2c0d98U, 0xbe08f59dbd2033a2U,
  0x3de7a8de3d94eb3eU, 0x3e0fafc3bd8306fdU, 0x3d60b6be3d854668U, 0xbd8f73febce3cfc9U,
  0x3db0a6fe3d3ccf2dU, 0xbb89688a3e1b98ceU, 0x3d19c7293e07e434U, 0x3e5ad6083dec1bf2U,
  0xbdcc1d9dbda315a3U, 0xbcb617acbdc0ee07U, 0xbdb30c1cbe1a4973U, 0xbcbc0585bd37cd3fU,
  0xbe084e44bd76eed5U, 0xbdf187ff3e0eda5dU, 0xbe1e9706bd7a4379U, 0xbde6d2dabe004153U,
  0xbdb055c93d99f935U, 0x3cb91f35be00abb0U, 0x3ddabf77bdacd01cU, 0xbd3ff7a2bd683281U,
  0x3c25fa5dbc7059abU, 0xbda2aa113d354a5fU, 0x3e154ec1bd5222dbU, 0x3e005d0ebd95f7b2U,
  0x3d77a765bdb9b5bbU, 0xbe0b33babd89099dU, 0x3c5c64f03d5df811U, 0x3e2be5bc3e15404bU,
  0x3cf1412b3db9b7d5U, 0x3dc1fa68bd2568edU, 0xbd447242bc4724b8U, 0xbe96b8e9bd8d8aa4U,
  0xbd2ae13fbdb2188aU, 0xbdc76b3f3e1edac5U, 0xbdb59ab0be1ba8e8U, 0x3d5a7a103d82fefaU,
  0xbe05a091bd86e835U, 0x3e3ba67dbddd492cU, 0xbd4763e9bdc826b1U, 0x3e025482bd3c2cd9U,
  0xbd20b438bd7a3984U, 0xbc230275bd42600aU, 0x3deff64dbd1cf4e3U, 0xbd5b55833d6aaf17U,
  0xbcaed2483ac628b0U, 0x3e02b2743dbfcdcbU, 0xbe2bbb573d1f216cU, 0xbe584dbdbcde4926U,
  0x3ca6a491bcfafbe8U, 0x3d6a5ea83e05d10bU, 0x3ca6e82bba85739bU, 0x3d9ed0f73e24a68cU,
  0x3d15bd81be3be088U, 0x3d866cc83c971923U, 0x3d161dea3c9049e0U, 0xbd1f0465baaf4d33U,
  0x3d83dd7bbdbf29ffU, 0xbc5190d1bdeee347U, 0xbc7e5642bb95b181U, 0xbd0658453d095200U,
  0x3d4fc9e7bd1fd735U, 0xbb914c8c3e2a3c4fU, 0xbd6deea23d7b1db8U, 0xbdd62ba5be13e50fU,
  0xbcd37cb3bbfe78f6U, 0x3ba4621d3daac4b7U, 0xb99b5d2d3d77d1d9U, 0xbd8fdbc0bd904029U,
  0x3d9558913caa8487U, 0xbcd99def3d288366U, 0x3c9d53053d61a8f5U, 0x3d9fe7cf3dab3edbU,
  0xbd2d7dfe3d600ff2U, 0xbd90179bbd8c1becU, 0xbd9b15143d531cb2U, 0x3c9791373d2af941U,
  0x3cfe6f613d1eefb0U, 0x3cd2735e3e0bb6e7U, 0x3ced8b0abd2785bbU, 0xbcd35632bd8ee5a4U,
  0x3cf5919abc0d3f88U, 0x3db42fbfbc288d7dU, 0x3d3534433d265b8bU, 0xbdc206a1bd17b46dU,
  0x3d3c332fbe0787b2U, 0x3de99a883d75bb0fU, 0x3d29d4bbbc5c6bc4U, 0x3d559569bcd69d0fU,
  0x3c601668be08cd32U, 0xbe1acf9fbded3ecdU, 0x3babaaea3ac7fbc6U, 0x3d75d414bcc3e56bU,
  0xbd3ee1543c9c4b2aU, 0x3cd0b9fabd5488c6U, 0xbdc7247fbdd3be17U, 0xbe4117ce3b40b06eU,
  0xbdf21d1fbe433be1U, 0xbe02f9013d710ca1U, 0xbcae783abd066ecdU, 0x3d7deba4bcec24c3U,
  0xbd9275fcbda866fcU, 0x3cff3c3fbe2317a7U, 0xbe25a114bd97548fU, 0xbdf2d9f8bdebfec9U,
  0xbc9b9414bddf3489U, 0xb7e01bb2be273850U, 0x3d5f9af6bc94608aU, 0x3bab4dfcbc9ae452U,
  0x3d97518e3db21d11U, 0xbba28c123dbf28e3U, 0xbd4b7c253b80704cU, 0xbe0e3df1bdc7d934U,
  0x3c98d1b8bd4521a3U, 0x3d60b725bb282447U, 0x3d8319313d8e9c1cU, 0x3dc0fdeabd7fff90U,
  0x3d266966be2ea086U, 0x3dfc1729bd817268U, 0xbc7ed4033d8a174dU, 0xbc6763f13d26064eU,
  0xbd706487bb95aeffU, 0xbd8692d1be06e62eU, 0xbe306c28bd116ee7U, 0xbdae572bbe410ef5U,
  0x3ca35460bde86b75U, 0x3cf8d3e43e649e56U, 0xbe06450ebbae7fdbU, 0xbdb14910be42aafcU,
  0xbc7c51093e16a93bU, 0x3e17cdbebb4b69b2U, 0x3e0af6573ca762eaU, 0xbca81199be22bf0dU,
  0x3d945de0bd0d5fbdU, 0xbd44ec883dc6d54fU, 0x3d907abcbd15ccfbU, 0x3e0479903d51ed1cU,
  0x3d7d565ebe284e7cU, 0xbd39f17abc824a66U, 0x3c5442a83d0cf873U, 0x3b3fd4db3cf81fe1U,
  0xbc72ad83bdb4beffU, 0xbcdd5a44bc9ac96cU, 0xbd723ddebde431d6U, 0xbddce4cdbe0305f1U,
  0xbd82a19cbd87386eU, 0xbdb45031bd662067U, 0xbdd4b32ebe027771U, 0xbd715640bdf7b781U,
  0x3c16840c3d2dc478U, 0xbd0d2252be139e4fU, 0x3d059d22bd198b75U, 0xbd5aee103bdf8055U,
  0x3e1e8a0fbd3d8910U, 0xbd1a61babcb9f746U, 0x3dae53263d849466U, 0x3da0595b3de10dd6U,
  0xbd21fece37bbaf7dU, 0x3e1ac9abbd2f56bcU, 0xbd749a3dbcbc6355U, 0xbe726c99bd6081f3U,
  0xbd177033bd38e229U, 0x3ccd61bf3dd58a29U, 0xbc98a0103d89b557U, 0x3d902b353cb3e074U,
  0x3c6f537ebe131692U, 0x3de9ba78bd8edf4dU, 0xbdae5ad93c1db404U, 0xbd32fb89bd2a6faeU,
  0x3d2342273dc1e82fU, 0x3d3f85b9bdb192e7U, 0x3d2c51f73c75c2e4U, 0x3dcf27c6bdbef9ddU,
  0xbc82edac3d8548edU, 0x3e33cd2c3dfa9652U, 0xbe0b3bf43dd9023bU, 0xbe711cdabdf5be67U,
  0x3d7f41193e1b1100U, 0x3db7cb593c983bf2U, 0x3e21fe6f3dd1a040U, 0xbb72f7d2bd0910f4U,
  0x3d6fe2453dc2dad5U, 0x3c88482a3db929e0U, 0x3dd695233d3158d0U, 0x3d0acc893e105bb5U,
  0xbc836fba3d312641U, 0xbd4bf0333cf4350eU, 0xbe44823a3bd44bcbU, 0x3b740271bcc37e58U,
  0x3c2b67923d1eafc7U, 0xbc38caa5bc9498eaU, 0x3bf57a023da2d290U, 0xbdbe0558be2a9109U,
  0x3ce2d2d13cb11d46U, 0xbb6e53793d43915eU, 0x3cca2d49bc887f37U, 0xbd4849e8bdb3f972U,
  0xbd0293d7bc8eaf9fU, 0xbdb320a2bd313f38U, 0x3c0db9f7bd933761U, 0xbd95fe3e3d62e75bU,
  0x3e1856ff3cc65151U, 0x3d2a0820bc29044aU, 0xbe0d29173dd27d4eU, 0x3d701ad93cf59765U,
  0x3d497373bc840416U, 0xbcbe7ed5bb1a307aU, 0x3e536337bbee92edU, 0xbd2e91dbbd979e06U,
  0x3d98cb423cdafaf7U, 0xbdb1329ebd6f6aa1U, 0x3cac8b0ebd9fcfadU, 0x3d7e502bbe10aa35U,
  0xbd771bbabde6766aU, 0xbdaa166f3c0285a3U, 0xbe1489483c3bcb57U, 0x3cc66e993d3b77ffU,
  0x3bf8850b3dc698a0U, 0x3d80a7503d444744U, 0x3db8a4d63d40269eU, 0xbdea47b3bbb41d6eU,
  0x3d6799573b8479d3U, 0xbddff6733da1a317U, 0xbdb05c483ca5fb9fU, 0xbdb58d7e3d13354cU,
  0xbb927e16bd5de4a3U, 0x3dd6c029bdc59fb2U, 0x3d2f54773caff193U, 0xbd741a4f3d97541aU,
  0xbcb3ce8cbe240170U, 0xbcd5c8fabdacaac1U, 0x3cf975f5bd467618U, 0xbcb78f4ebd48753aU,
  0x3c0e51dfbd08255aU, 0x3d50247b3cae4b8dU, 0xbe1809673d352e72U, 0xbd44b8dabe227e29U,
  0xbbf8f052bd18f89fU, 0xbce2d932ba5ea14aU, 0xbde7d6ae3baa7bd0U, 0xbe32c1c1be298a38U,
  0x3c122941bb3b47aaU, 0x3dfd6123bda023abU, 0x3db7a9103d96b99cU, 0x3d1c9feabe1bc4f1U,
  0xbd2213923bcbaebdU, 0xbc46215f3d72cc44U, 0xbc1d42e7bd983d5dU, 0x3c8f56fdbd080045U,
  0x3d46924ebd8003ceU, 0x3d198903bd238b4aU, 0xbd8480fbbcd1ad32U, 0x3b5f96173ceee1dbU,
  0x3d3e133e3c518122U, 0xbb442e6dbd11dad4U, 0xbcd74b0dbdbe44f6U, 0xbe41e9bbbd9ab57eU,
  0x3d5001d2bd9fbf82U, 0x3d229a163cd95a6bU, 0x3d81d2cc3d949b80U, 0xbd8a1c9dbdc73870U,
  0x3d95586dbd8c226eU, 0x3dca27cf3ceedd49U, 0x3d9145a5bd605a8dU, 0xbb47d342bc4ffd96U,
  0x3ca223403cd64a7cU, 0x3d9626d43da93e11U, 0xbd90fdb2bba85db6U, 0xbd2fa253bdc9db5aU,
  0x3d57e904bcf0afdcU, 0xbd4340223d8bf2e7U, 0xbd1ed680bc8f0fdcU, 0xbe028a5abdd11da6U,
  0xbd0f69003d9397d8U, 0x3d86e8303d00cedfU, 0x3dd77cf8bd6ef611U, 0xbd3e5aecbd47a668U,
  0x3d8cc0b23d0e5f75U, 0x3c0a1e683dc6a3f3U, 0x3dd57daf3daf1e36U, 0xbce3e5233d8ba2a6U,
  0xbdc82ed83d1d6ba5U, 0x3cef9bdcbd3b3134U, 0x3d113d45bdcb4957U, 0xbdc2fd163d90ac16U,
  0x3d0aaa81bce93f9eU, 0xbd5a478dbe1a5f4bU, 0xbe58224dbdb8b211U, 0xbd38ace7b950dd10U,
  0x3d8c4d4d3c653c27U, 0xbda9939a3d306faaU, 0xbdeb94303d09b35fU, 0xbcae2ebc3dfc351cU,
  0x3bc034b2bd84e3afU, 0xbdb29af1bd1261f9U, 0xbe0108f6bb15ce0eU, 0xbd7c60343cdac596U,
  0xbd4683693c4a9d33U, 0xbde53789bda2f8d9U, 0x3dbf3c2cbe05b2f2U, 0xbdaf74ae3dd6acedU,
  0xbddefdd53d956f37U, 0xbcf75256bd9ee2ecU, 0xbe65df033ceeb6a2U, 0xbe22577a3d9182bbU,
  0xbd092cf4bd399b52U, 0x3c89fdb2bca3e3eeU, 0xbdaeb5b8bd257872U, 0xbd22eae73c8c4c1fU,
  0x3d121057bd8e111bU, 0xbde5439ebc59cf57U, 0xbcd7d1d9bd102f8dU, 0xbdd10ee3bd65d706U,
  0xbde47c913dc5b4e4U, 0x3b83a8433cc7babdU, 0x3dcbce51bda0d0eaU, 0xbe05cd503e1813b1U,
  0x3d69e9703d61a602U, 0xbc14aa6abe001e64U, 0xbe351b023db43d93U, 0xbe7b5ec83dfcf657U,
  0x3c4d4a743d8c1ee0U, 0xbe067da03da095b0U, 0xbd8ae841bd0439f6U, 0x3c68251c3e2478aeU,
  0x3d8b6abf3d677cf1U, 0x3d32702d3da2a282U, 0xbd25121fbd3a1c3aU, 0xbbead5d8bd629700U,
  0x3ca0e052bccc3790U, 0x3cd67811bd48bd9bU, 0xbd939113bd6690e6U, 0xbe031a3dbcefbdc9U,
  0xbdd7914dbd208eb6U, 0xbd49b05dbd9c52e0U, 0xbde2dee2bd9ca27cU, 0xbdb47624bc1fd7a7U,
  0xbde9b433bc01e628U, 0xbd5e1b18bddbbf30U, 0x3c270a2ebd54d6b8U, 0xbbacb11cbd2e1707U,
  0xbce4cd09bdd0d5beU, 0xbda619eebdb06e14U, 0xbde4ae64be069d80U, 0xbda5a69539b32ec2U,
  0xbd568c52bd7fd6eeU, 0xbcf27337bdac1bbdU, 0x3cad56e03bba1b38U, 0xbd2e6e4e3c859caeU,
  0x3c595942bbb015eaU, 0x3ccb5bbcbe0e2bffU, 0x3cf9338abcb9fb4eU, 0xbda2df9bbd649a13U,
  0xbd826cdebd5424c9U, 0xbc6ae642bdb7c5e5U, 0xbdb210aabd15ce15U, 0x3c0a3299bde5b340U,
  0xbde8c6f03c832bb6U, 0xbd2bbba4be188004U, 0x3c864b92bd142977U, 0xbd786acfbd8b6cd6U,
  0x3da008e3bddd6acbU, 0xbd731752bd8d20ffU, 0x3c89aacd3cd64548U, 0x3da73ffc3d178614U,
  0x3d34b5a13d2f26dfU, 0x3dbeab9fbdfd5aacU, 0x3d1794ec3daadc81U, 0xbdad5a7abd3ccd49U,
  0x3d9224003c9a7e83U, 0xbbefa21cbd0ef23cU, 0xbe01c2a3bd184e5cU, 0x3d97e17dbce85addU,
  0x3cb33e11bdfcaf18U, 0x3d428f583d307026U, 0xbe0cb8063d122abeU, 0xbdb96dabbd00a341U,
  0x3cc70295bd111d23U, 0xbdd390b8bd3c817eU, 0xbc8addd3bd6e8e8fU, 0xbdd23397bd9e30abU,
  0xbd75e74dbdf03e2dU, 0xbc6a3ec6be181109U, 0xbdf6769dbde32f79U, 0x3b588e2fbd290a7bU,
  0xbd3b87ccbe0ee0e6U, 0xbdec82fabdf1d610U, 0xbde423fcbd6faefdU, 0xbddeba72bdab63a6U,
  0xbdebed0cbd49208eU, 0xbd223747be0a180fU, 0xbdf28137bdbfb022U, 0xbc6f2eecbe38232eU,
  0xbd6a6b33bd414dbcU, 0xbdb865ffbd625e03U, 0x3c20f8293cae3e12U, 0xbd87f88a3d3e00f4U,
  0xbc563fc73c26bbdeU, 0x3d4a6b0cbe49e696U, 0x3db3f534bdafa4a1U, 0x3d4f8a5bbdcea872U,
  0xbc1a496b3c08012bU, 0xbdbadc7cbd10805eU, 0xbe15323cbd0de7ceU, 0x3d62d1a2be0e2814U,
  0xbd9018fcbd0e4ef7U, 0xbdb3d6edbda7f461U, 0xbe064340bd07ddb7U, 0xbce89005bbda870dU,
  0x3e31b3c7bc5b2576U, 0x3dc7747e3c71e3e0U, 0xbe0dd3e23dc69cccU, 0x3e0792e8bdd82a1fU,
  0x3cf7902abcf301c8U, 0xbc15205fbdf3c2b7U, 0x3d60f35c3d9d0c6aU, 0x3dfd2673be230f17U,
  0x3de3a332be151faeU, 0xbca839393c8aaf73U, 0xbdfea9d3bd173cbcU, 0x3cfa86f7bdf38791U,
  0x3cf29b34bd822d18U, 0xbbf0cdc53d9d1020U, 0xbe95e6553da18905U, 0xbdae96a33dc69810U,
  0x3e0babb7bdaa59c2U, 0xbd52fb833dcf0908U, 0xbd0f45bc3dafb4d2U, 0x3e018008bd8de0e4U,
  0x3d553f3a3cd63561U, 0xbd6610fdbe2a1bb7U, 0x3d9da2dcbc910c94U, 0x3e0fea1cbe06c007U,
  0x3c945455ba5f79f4U, 0xbbb80e7e3c0d50b3U, 0x3d380227bd8e1957U, 0x3b94362ebe0d5629U,
  0xbce844ca3ce771a5U, 0x3de3788cbdb92759U, 0x3c23d7c43dc7a975U, 0xbda5353cbda88cb3U,
  0xbc0f5fe5bd0d3a0fU, 0x3d90157a3df524a5U, 0xbe2590873dfaaca9U, 0xbd3293e7be431eeaU,
  0x3e11f5bdbde4f70fU, 0x3d0590b9be2c4cf6U, 0x3deab0733dace711U, 0x3e1fe9e1bde819d7U,
  0x3d4da5f63d30322fU, 0xba7cee2c3d59f20aU, 0xbcd04b3cbc8ceb7eU, 0xbd596b78be2e7eb1U,
  0x3da20dae3d85fea6U, 0xbda174ec3ddfff01U, 0xbe0ae8b7bd21ad2dU, 0x3b8920c63d96a782U,
  0x3d2200ed3e333a7aU, 0x3d687aa73d90fb30U, 0xbdc7a90bba77cce9U, 0xbc72c54dbdd04738U,
  0x3d1c5940bbfa2ec4U, 0xbd87b7e4bc3a4c0bU, 0xbcc677583db65a65U, 0xbc677e1f3bd1f89dU,
  0x3de2e039be13d276U, 0x3d6ae2afbda0efc9U, 0xbcd72fdfbd6f0d66U, 0xbc54decfbdd108faU,
  0x3c860000bdaf66caU, 0xbdc32a613d416fb5U, 0xbdee4c503d05e1b1U, 0xbd5115e23c16d5d8U,
  0x3c9e69353d3c0caaU, 0xbd93fdbb3db5d8feU, 0xbc620ff0bd3404beU, 0xbd41a369be186271U,
  0x3d54a528bd853f18U, 0xbd6b85e1bcd24311U, 0x3ca2ae0eb9b6038eU, 0x3cabc0be3d1ebb6bU,
  0x3c115c413d867292U, 0xbd5a754bbd087936U, 0xbcdf0a4cbdb95cf7U, 0xbde11573bd292efaU,
  0x3a637cc23e047ce7U, 0x3b7713863cfdafa0U, 0x3dbd87ea3d024048U, 0x3c9ab6abbd6fdf61U,
  0xbd63cbe4bd5f0969U, 0xbb9a9b103a2910f4U, 0xbcb48f81bcedbb39U, 0xbd795acdbd13273dU,
  0x3d47faa1bdfb9a91U, 0xbe20b91cbd637d03U, 0xbdbddf4abd9e53fcU, 0xbdc98e673d54cc91U,
  0xba666ace3c9d4b23U, 0x3d769440bd4728fdU, 0x3ddb34a1bd4ae9f3U, 0xbd9341d6bd23697cU,
  0xbdc0e5cd3d51f8b1U, 0xbd6d016fbd9f0aecU, 0x3cb9061bbd15b46fU, 0x3d496accbc89989bU,
  0xbb1050eebdfcab7cU, 0xbd10fb883ca1997fU, 0xbd4fac5d3cf9c528U, 0x3d3a768bb9735614U,
  0xbdccb2ecbdd0f519U, 0xbe1d3f94bc9478a8U, 0xbd1eb549bde0a725U, 0x3ccc04d9bdeb7e0aU,
  0xbe005c943d1dc07bU, 0xbce44825bd5833d3U, 0xbcd342083d47137cU, 0xbdc2f6a1bd109201U,
  0x3b2a6d143e082593U, 0x3d688f87bd0bb5d2U, 0x3e2fee78bc87099fU, 0x3cc8b708bce4af35U,
  0xbd15e493ba6229b4U, 0x3da44c943b4dbd48U, 0x3dfeb379bd8dc5f8U, 0xbde6a32e3da34c5bU,
  0x3daf85803d0e59bfU, 0xbdd6dce9bdff21caU, 0xbe074151bdd8e0efU, 0xbd88e5dc3d8fbe63U,
  0xbd90a6af3d8a143eU, 0xbdb66bf1bda69524U, 0x3d8d3a323d456512U, 0x3da77ba43e4217d2U,
  0xbcefc26b3d11509eU, 0x3cd7f90f3dc7a01dU, 0x3d201858bcec67fcU, 0x3d0a658f3d29f797U,
  0xbd949e58bd4260d6U, 0xbcd29c44bc8d234cU, 0xbccee4b0bd6fe123U, 0xbd90f23b3cf17b5bU,
  0x3bc954f6bac8eb6bU, 0x3c8dae90bd2896bfU, 0xbdb06d1d3d6cc3ccU, 0x3d2ea6e23d5c7cf8U,
  0xbd30a383bd07f93aU, 0x3d5594ecbc973128U, 0xbd342999bc9b0eeeU, 0x3d78636cb8f14706U,
  0x3d0722633dd1b8a1U, 0xbcc01d8d3cffc75eU, 0x3d198c5b3de48badU, 0x3ccaa6d93dbbc20bU,
  0xbcaa65f13d75db4dU, 0x3c2047af3dd8e85cU, 0x3d6fe63fbd4a8595U, 0xbde7aa09bd3cd371U,
  0xbd0791443b4a5466U, 0xbdb56259bde75a00U, 0x3ca82f753da6eda9U, 0x3c24ea803d90b67bU,
  0x3d52643b3d8f60fdU, 0x3d2b122b3ce7887aU, 0xbd031ea83d2cebd8U, 0xbd735abd3d576f58U,
  0x3b5b4fb3bcca8d2bU, 0x3d32e0f63dd24505U, 0xbd8916913d94c6e9U, 0x3d9359053dadfac9U,
  0xbda8ea4a3d909d3bU, 0xbd029ae03d0c38cfU, 0x3e1aa794bcf05e6dU, 0xbdc104983d9864a2U,
  0xbc1bfd94bcaf6647U, 0xbda6678abd9a121aU, 0x3be97e3b3ca1074eU, 0xbd8293593d748ec5U,
  0x3d662cd03cb4664dU, 0xbd7cdc8b3c73cc92U, 0xbdbc4121bd9820e0U, 0x3cc25fb13e4f8066U,
  0x3cedeb2d3d5c91b1U, 0x3bb829da3d7ff683U, 0x3d7c015a3d4884d3U, 0x3cacf5a0bb8b7c8aU,
  0xbc9697733ddc854aU, 0xbc23bd453cddc819U, 0x3e26741dbcb1042dU, 0xbe14752d3d942be6U,
  0x3d83269b3c9c31ffU, 0xbcfcc4b5be3f370dU, 0xbdd203ec3cde191fU, 0xbdb3fc8e3e0e5820U,
  0x3d88dcf0bd930465U, 0x3cc159c7bb8eef65U, 0xbc7219443d11da08U, 0xbcc46ce53dee406cU,
  0xbd3015f8bce3902eU, 0x3d078a2ebc95fb80U, 0x3da81bf83d0ce7abU, 0xbab98593bd3f053eU,
  0xbc86052a3c016db2U, 0x3d578d04bba43218U, 0x3de9626d3ca3bc7fU, 0xbe225ca63dda6493U,
  0xbc2d4b1cbc59da98U, 0xbd45adaebdfc1b80U, 0xbd0572dd3daf4fb4U, 0xbd2617133e34695aU,
  0xbc6908f9b9ec5ea1U, 0x3d220cb83d9f0f3cU, 0xbddedd8dbd6b3574U, 0x3d96b42e3e3501a6U,
  0x3d1ab96dbb965ae2U, 0xbd2173c53cdd3b06U, 0x3d70d4e8bd946b8dU, 0x3d39d35bbc29fa83U,
  0x3d05bb123d6860afU, 0x3cae903cbd2365ccU, 0xbd4e1430bc857d69U, 0x3a80cdb8bd4513d8U,
  0x3d25f175bd14e15eU, 0x3db6ccd13d558dcaU, 0x3d135d4f3c92cc11U, 0xbd6a8a5fbc9c4f0eU,
  0xbdb6a26e3e014340U, 0x3e0675afbd251e27U, 0x3dc58192bc354440U, 0xbd284ed13c20da3dU,
  0xbd770a04bd91529bU, 0xbbb139263d7b1299U, 0x3e16df973ce1382bU, 0x3dfe7bb73bdf9f02U,
  0x3c07cdc6bd6f3a61U, 0xbd2d7cba3c72443aU, 0xbdaafbc93c9890c6U, 0xbc68335fbd714682U,
  0xbd39b5bebdd4bd6bU, 0xbd8360f03e054b4cU, 0xbcb24ddd3d2e15bdU, 0xbe254213bda22e5aU,
  0x37d6d42e3b33b10cU, 0x3a153041bdbada13U, 0x3d72ddecbd345260U, 0xbe147d8abd3ac53eU,
  0x3d2f86273dba7574U, 0xbbcd3499bd619948U, 0x3d7bddbc3dc4e668U, 0x3d66991b3bf8b3b3U,
  0x3e01f87fbdd62230U, 0xbda793af3c58ea13U, 0x3d24acf43e01afc2U, 0x3d827a2b3c6e3f42U,
  0xbdd9a58bbdab63e8U, 0x3e02ea9ebdc66e85U, 0x3cc687893d1015e3U, 0xbdcabbda3cd5cc28U,
  0xbd471b39bdf8ab0aU, 0x3d62cfad3d6a5524U, 0xbda7d745bd99d123U, 0xbd9a24523d9eea77U,
  0xbd942d9e3d5ea20fU, 0x3ac5c7ccbd538baeU, 0x3c53083cbce62e05U, 0xbdb583a4bdc99950U,
  0xba14da8cbb5b1f58U, 0xbd4356b9be123fbaU, 0x3da8e9a93dba9419U, 0xbbdef7bfbc7618efU,
  0x3ccee9383e05057dU, 0x3e44ac473d26bb9eU, 0xbe0db421bd21761bU, 0xbe0d7e2fbe0ba969U,
  0x3d7d3d9f3d0f3303U, 0xbc5b7b043e238ed9U, 0x3d1fd86a3d863f9cU, 0x3d8e2d533c979bbeU,
  0xbaf4e9b7be030b6bU, 0x3da9a364bc4bb6c9U, 0xbdcc2a783d382ea2U, 0xbd4b783b3c892cf4U,
  0xbdef56babdfc2bf0U, 0x3d8270033cc77c27U, 0xbe080005bcb2c9d5U, 0xbcdabb82be64f8acU,
  0xbd1a94c33b6fd085U, 0xbd8086ff3e3a906eU, 0xbe4fe15cbc3db25bU, 0xbe579e3cbe243ac6U,
  0xbd8933573dc94f74U, 0x3dc22c153d0477e4U, 0x3cf672c13d8026e7U, 0xbb38d946be5568d8U,
  0xbc0e49193ce00d9bU, 0xbd61c405bc4ccc5fU, 0x3cd017793d905981U, 0x3d2efb983c811ec3U,
  0x3dd2bf62bd97ef9bU, 0xbc86107d3d8c0cdfU, 0xbce1d3083df09af8U, 0x3e2c35f83c1d6f56U,
  0xbd1acef4bbedd005U, 0xbc9c9b8fbc3af6e8U, 0x3de58b22bd18b3e4U, 0xbd5cf7dfbd462793U,
  0x3b4cb3d4bd6886deU, 0xbd321e33bb29433cU, 0x3bfe2ffabda20047U, 0x3d54fac9be1b5124U,
  0xbdc7b10d3d5db93aU, 0x3df5f6b5bd01f0acU, 0xbc772b97bd9a95f6U, 0xbdaacdd83cc2d497U,
  0x3caa0be73b9f5395U, 0xbd807f423b38795eU, 0xbcbc186d3e076528U, 0x3e4d0544bd86593bU,
  0xbcc3a2413df470b1U, 0x3e3e39833c5fb697U, 0xbd4c8e093dd79c8eU, 0xbe756654bd49479cU,
  0x3dab95fcbda432bdU, 0xbd1af9013dea6519U, 0xbdbb07053d9484b1U, 0x3da8e6dabd54cc94U,
  0xbd87b442be0d72e7U, 0x3e4ceeb4bd686121U, 0xbe09fe193cbfe0f6U, 0xbd1466673d64cc9bU,
  0xbdcf9955bcd28b61U, 0xbc1956e5bce4673bU, 0xbdef35e33d2ba6b1U, 0xbda4f585be19ab46U,
  0x3d3c9b243da08109U, 0x3d9f58523db32c6aU, 0xbdc638e23c61f319U, 0xbe4611cdbe303e8bU,
  0x3db353133db8b0ecU, 0x3e0bc0fb3dcbe64fU, 0x3d845dba3c95b19cU, 0xbae5ed3ebe153129U,
  0x3d430644bc0e822cU, 0x3d3fafd83dd88557U, 0xbd1b412d3da7477fU, 0x3dc7d64a3e14f217U,
  0xbd4968b03d72c844U, 0xbd1426a63dcd5650U, 0xbe18335e3d300620U, 0x3d9476dcbd858cc3U,
  0xbd04c2893d0c2e6aU, 0xbce256823c51d43dU, 0x3caf3b333cd1f817U, 0xbcaf631cbe32bb6fU,
  0x3d95fef3bba9fd0aU, 0x3d9b00893ba827edU, 0xbccc96aebd2db43bU, 0x3d958a29be313e63U,
  0x3d34447a3c161fbaU, 0xbdd06f53bd5c4627U, 0xbcdc95793da637d5U, 0x3de473b43daa8c9dU,
  0xbc5d945dbe0bdefaU, 0xbe0d4c69bd09c8abU, 0xbdbaf94c3ba34e18U, 0x3d14f53f3d90766eU,
  0xbe00d418bc8fe984U, 0xbced6a4bbdc5e69dU, 0xbc986fc3bd31d1c2U, 0xbc7cebc5be047412U,
  0xbdabebfebe2c81deU, 0xbc857cf9bdb7ea3cU, 0xbe33e6e5be391e0fU, 0xbd81cb99bdbcae4aU,
  0xbe1c02b3bd0d4ea0U, 0xbc43aedfbd26cf7aU, 0xbe02a2bbbd55556bU, 0xbe0318f4bddae3f5U,
  0x3dc725f5bd7466fdU, 0x3dbbbdd93de511bdU, 0xbdeea4343deb6551U, 0x3d82a377be0091acU,
  0x3dbe69cc3d0819a4U, 0x3ccc5d88bdef81b7U, 0x3d5203e93e21d89aU, 0x3ddeb9c0be1906a8U,
  0xbd0dc1d6bc9831fbU, 0xbcc83bc23d6c963eU, 0xbe1b57b6bd5b88bcU, 0x3d5e8c7cbe0f8c1dU,
  0x3d95b4b3bd52044cU, 0x3de8b0a63d4e9837U, 0xbdcc32c13cb08e9fU, 0xbdde065d3d7a2854U,
  0x3d6fbecb3e1ff0c2U, 0x3d463c74bd4346a2U, 0x3d1f25b3bdc8f896U, 0xbd28ec54bca4244fU,
  0x3c1558413d80cb19U, 0xbdacb2c53da3066fU, 0x3d92fb25bce0cedfU, 0xbc8efd1a3d1a603dU,
  0x3db975ce3c9edeccU, 0x3dc300483c1d80a9U, 0x3cdc7850bd780739U, 0xbd0ed838bd1143b4U,
  0xbd1f67dabe1581adU, 0x3d0727193c8df36bU, 0xbd94e53d3c801599U, 0x3d177c32bd92f5f1U,
  0xbb917055bd502112U, 0xbd03f62e3d071849U, 0x3c24d3d83d95877bU, 0x3d52274fbd70b21bU,
  0xbd21bb4f3dc7d202U, 0xbd07ab91bd87034dU, 0x3ccaf0c13cb6c9a3U, 0x3ddd15bbbe1870cbU,
  0xbd49bd28bdb4c5c2U, 0xbdcb84633d811a1dU, 0xbd3dd42cbce1d84fU, 0xbc7e750abdc6acfeU,
  0xbdf13087bdcab9f5U, 0x3ca91dbcbdd95d27U, 0xbdd3053fbdaef390U, 0x3b4bb2a5bd87a3baU,
  0xbb0b612d3d8fccf5U, 0x3c7814933d36dd8dU, 0xbd1e0aeb3d8e6a51U, 0xba6a72c53b569378U,
  0x3c82fa363c89c1c8U, 0x3dd636b2bd29c266U, 0xbc291bb23daf5169U, 0xbda88f37bd75f603U,
  0x3c8be05fbde60af8U, 0x3ca291d53d828cc8U, 0x3d2d4e6d3db96cf4U, 0x3da275b7be6ae67cU,
  0xbd277fe2bd91468aU, 0x3db3fbb73d428897U, 0xbdef13093d0f8188U, 0xbb4b0857b9f67e2dU,
  0xbd8380fd3cf2e107U, 0xbc130729bc5dffeaU, 0xbd320a7ebe05e924U, 0xbe29db0abe1cb353U,
  0xbd7f4019bdb59d01U, 0xbd4416d13d838e1dU, 0xbdff9b2ebd0df95dU, 0xbc80b73cbc7840fbU,
  0x3c9f3e423d1ebe87U, 0x3ddf58963ca70c78U, 0x3dee7475bd59ebf6U, 0x3c58c320bd8c0734U,
  0x3d8a284dbe160431U, 0xbe33e396bd994e16U, 0x3dac3eacbd39d1ccU, 0xbd150b36bd991ea0U,
  0x3df99ea4bd3d4d82U, 0xbd9c17c13d872fedU, 0x3b65e63e3e06ffb2U, 0x3dd13b14bb4dea59U,
  0xbc9e07793dca58ceU, 0x3d8dddb7bd323ad6U, 0x3c5988853d63d7f4U, 0xbd929bb6be3f5630U,
  0x3ae98352bd69fa4fU, 0xbcdc87a73d845df5U, 0x3c86bfc5bd394510U, 0x3d2d4f85bdaa08d1U,
  0x3c34879a3ce805deU, 0x3c5277a0bda6e8d4U, 0xbe3fd8c33bdcfb16U, 0xbd3e379fbd584e1eU,
  0x3da283313dba320fU, 0x3d73d3d33cb186d3U, 0xbdd54920bc867a80U, 0x3dff1865bd23af5fU,
  0x3ddb0ee2bc88f454U, 0xbc5cc0443e039dadU, 0x3cb2f52cbb0cc33bU, 0xbeb36e6fbe034776U,
  0x3d98caa7bd2e038dU, 0x3dcb351e3d4e6ebeU, 0x3d4cbdedbd085fabU, 0x3c2ea3dabdc7abdaU,
  0x3db66bbfbe389ab4U, 0xbb9eef2dbd27abd3U, 0xbc6b9540bd4a1ea2U, 0x3d99ab613d6f3074U,
  0xbe0a5368bcffb37dU, 0x3d9c080ebdea2d47U, 0xbd8585d3bda41321U, 0xbde13499bddb494bU,
  0xbcf4a8f53a8cb927U, 0xbd98a53f3d8b4b98U, 0xbda43d37bd5d1796U, 0xbdcee6adbd210519U,
  0xbd7313263dc97fd0U, 0x3e07dbfbbdf7e97fU, 0x3e02ae6a3d798ae3U, 0xbc0136a5be0323d1U,
  0x3d744639be0b7616U, 0xbe19161b3bcde624U, 0xbb2fc75cbd95cca8U, 0x3c1d29283ce6a19eU,
  0x3d757a8abd7415caU, 0x3d6f471bbac2ebd7U, 0xbe6ffa103d81a194U, 0x3d6b5dd7be2e531fU,
  0xbc94987cbd600f48U, 0x3d1ae5fbbe237473U, 0x3d9ee7c7bd4c7a33U, 0x3e263d0cbe34673aU,
  0xbbb934283d3c5794U, 0xbdf516c5bb1f50a7U, 0xbdd20b0f3d593602U, 0xbda64648be32bf15U,
  0xbdb4b63bbc86d7aeU, 0x3d3548f5bd4823f0U, 0xbd94da7f3d3435ceU, 0xbddc9d71bd87b9a8U,
  0xbd0b72a83db8c616U, 0x3d37d0343dbdf5adU, 0xbcd2ff3abd0a06e3U, 0x3d48ddfcbdaa3b8aU,
  0x3cf3934dbda5a018U, 0x3d5f9c053d6aa3efU, 0x3d9c81923ce4a98dU, 0xbc7485e6bc38ad50U,
  0x3d52a502bd942488U, 0x3d98beabbcd9c996U, 0x3de0e0f23db4b309U, 0xbd1cb4f2be37da1aU,
  0x3a982ec73d02c337U, 0x3ce0f0b63d798ab8U, 0x3cdfe90f3db19ddaU, 0xb9219f4b3c392486U,
  0x3d47a7cf3da3fe2bU, 0x3d1f2170bd87bc6dU, 0xbcee108cbca573caU, 0x3d7a90213cb7a548U,
  0x3d5e8028bd149713U, 0xbda3cb813e2b24c9U, 0x3d8b0ef0bdeaf145U, 0xbd76f5de3d5a84b3U,
  0xbd55cf913dfc1fc3U, 0x3e1bfcedbdc246a4U, 0x3debf4e43cb2cd47U, 0xbda9c237bce8571aU,
  0xbd818f8a3a760006U, 0x3c57104c3c855748U, 0x3db990a6bd6bddbbU, 0x3d4397a23d1bbe11U,
  0x3d4dd992bda9019eU, 0xbc514be23d7136f8U, 0xbe27be463d8b8218U, 0x3ccba5fcbe49391fU,
  0xbd3843993cfa89e8U, 0xbd1f5e7fbdbc1002U, 0x3c103126bd4be511U, 0xbdf03356be63fb0dU,
  0x3cb80f3939de1939U, 0xbc376c523cfebcbfU, 0xbcdd408f3d3a2fbcU, 0x3cfad637be8bbf0aU,
  0x3d71280f3ce79727U, 0xbd51483dbcbecc3eU, 0xbdb2561b3d6a3639U, 0xbcdaa7ae3da53588U,
  0xbe0e9ba53d82793cU, 0x3db5f39bbdfc9d40U, 0xbbfa955f3ca311efU, 0xbdd3f3c5bde8d469U,
  0x3cbcc02dbde93a84U, 0xbe218dc4baf13900U, 0xbd57dffbbd1f906bU, 0xbe3382c5bd9176acU,
  0xbd3502e9bcf5d338U, 0x3cf870b33cc533cdU, 0x3d4de88abcce89b7U, 0x3da5ef423b086806U,
  0xbd10adaabdac0eaeU, 0xbdcfb6993dc4745dU, 0x3c05b5413cf5cb77U, 0xbd72697c3db04f02U,
  0xbdb586713d9e67ddU, 0x3b9cf47d3da9c8ebU, 0x3d854be9bdbd9c27U, 0xbdb8e6d5bdb7b37eU,
  0xbcc803e4bceea4fbU, 0xbcc92149bb9bd13bU, 0xbd5fb3dcbcb15a93U, 0xbde34f5fbd84623fU,
  0x3d42ab6c3e09f8ceU, 0x3dc89a45bc663d84U, 0xbd1420353d98e3ffU, 0xbdc3548c3d8bed6fU,
  0xbd5b45813d75e5a6U, 0xbd52e33b3d053dd6U, 0x3d52677e3dbe7fd9U, 0x3c1d7bc73d722607U,
  0xbe001bd83d36648aU, 0x3d9080033c4f8e1fU, 0xbca2529cbdd80f5eU, 0xbe183816be30ea78U,
  0x3d1179803d82e0cfU, 0x3c3c831abdba23d9U, 0xbc47a0fe3db77b55U, 0xbbbfe8ce3b848b40U,
  0x3dd4bff4bd780db5U, 0xbd8be828bc5ff446U, 0x3d3c83a23c4a65b0U, 0x3db419dcbe0ffb36U,
  0x3dc14e74bd8ba4cbU, 0xbddcd5f4ba25d768U, 0xbd9a9c273db78b48U, 0x3d52ec713bab5c8fU,
  0xbe035ffc3cde452aU, 0xbd5b3492bd234d46U, 0xbdc3ab49be14c367U, 0xbe3c540a3d7203b1U,
  0xbda41136bde52f71U, 0xbc2f9f383df76e07U, 0xbdc023a2bd90f7dbU, 0xbddefa57bd52a072U,
  0xbca791cebd2860e7U, 0x3dae944ebe02b802U, 0xbccb2f6e3cce7d1dU, 0xbcb38b8ebd5869f4U,
  0x3dd093c7bd8df033U, 0xbe3b8bccbc6f8357U, 0xbd6b64e23d12f988U, 0xbbb6d1c6bd2439dbU,
  0xbdfae8363d6dad49U, 0xbd5eee99be028ee7U, 0x3bc0bc3e3ca60f3bU, 0xbd09c4453cbd79e2U,
  0x3c57c3993d493be1U, 0xbcddfe0fbdc9df40U, 0xbdb789663ca5079dU, 0xbc348bc93b946696U,
  0xbc8a7d99bd445d28U, 0xbd87363a3d2fca86U, 0xba245ed4bda0c7f5U, 0x3d25daf73cb322eaU,
  0xbda066f1be111e05U, 0x3bcf7721bdba0546U, 0x3b07ca3f3cbf7405U, 0xbd649b95bc3d31f7U,
  0x3e11d2b3bdbb8801U, 0x3d1375f63dfc266eU, 0x3daed65d3cc39201U, 0x3d6ad7763dc4ed6eU,
  0x3d59cdbdba289706U, 0xbc5709ccbdb0aa40U, 0x3d3994adbc443942U, 0xbdbdb1c43d60dcdbU,
  0xbd82f90a3cd3a952U, 0xbc374fadbd3a13a7U, 0xbd491f2dbd48ae54U, 0x3d7a2dd23c49a239U,
  0xbda2e8ed3d16a9b1U, 0x3d5dd822bc121e42U, 0xbc7198be3d890ea1U, 0x3d079b1fbd928ccaU,
  0x3cfc03f9bd86db2eU, 0xbd5ffb1e3d8df946U, 0x3c71fb7a3c7df469U, 0xbb5e8c4d3d0e3ebdU,
  0xbc60c82d3d051ec3U, 0x3cfd7985be31d4cdU, 0x3dc37749bd2fb191U, 0x3cbd2975bd8be4e8U,
  0xbd6ba5bbbdce21c7U, 0xbd4c10083db96dc7U, 0xbd2a3582bd122475U, 0x3d5f6c51be01e25fU,
  0xba919a74bd038a7dU, 0x3d1f5329bc879ae0U, 0xbe110d973db696f9U, 0xbd13b785bd13010eU,
  0xbc99573c3dabac53U, 0xbc5aef7d3dae7964U, 0xbd61f2753daee798U, 0xbda580f6be0e737bU,
  0x3df2b9a4bcca72d6U, 0x3d71c0bcbd875b5aU, 0x3d8717c93d54f89fU, 0xbd9fd1c1be458bf5U,
  0x3def1eedbdca5a8cU, 0xbd8dcd033d3e627aU, 0xbdabeebb3d9b1acaU, 0x3d377977be8a6c93U,
  0x3deb2eddbd87f158U, 0xbd9624d93c1abcb8U, 0xbda084573d358033U, 0xbd32ce983d2c191bU,
  0x3cee29c0bd662407U, 0x3d192a043c8ce5cbU, 0x3d875cbc3da1b852U, 0xb948e94cbba18af8U,
  0x3ce789a3bca0e76dU, 0xbd1e198fbad19474U, 0x3d6e2cc33b01f25dU, 0x3d59e4903d762fbeU,
  0xbcb38844bd51c2f5U, 0xbccfa3043c767b08U, 0x3c9c9b7e3c7ec285U, 0xbda2e0193d525a27U,
  0xbd87945bbdcd5fe6U, 0x3d3f431bbdca7febU, 0xbd2f1b623c92b061U, 0xbd4d08803cfe4adeU,
  0xbc8cc7ca3d82476eU, 0x3d0ec23cbd1a368bU, 0x3dd6e9a53d1b0e73U, 0x3dc83a2ebb708a1dU,
  0x3d6c34c63d902dc6U, 0xbcbda4c9bdd8a5c4U, 0x3d4d60003da21cceU, 0xbe4492e5bd9e623aU,
  0x3dafe435be5745cbU, 0x3ce6211f3cce42d2U, 0xbd9163f8bd6b67ebU, 0xbcbd8afebd94b639U,
  0xbca5b8b7be32a7edU, 0x3d586e6fbc818cf3U, 0xbe233dabbb3aa1ceU, 0xbd93aa07bd532eadU,
  0x3cc07cac3c97995eU, 0x3dcfc170be0260ddU, 0xbd2c70ef3c8c4272U, 0xbdcf7ad5bd9c4d22U,
  0xbc24e0cd3c69f8bdU, 0xbd1635bc3d0dfca6U, 0xbd4211333db37660U, 0xbe71e449be00bedeU,
  0x3d694e66bd5fea38U, 0xbd20b5c63dab8ffcU, 0x3d9f873e3ddee27cU, 0x3d229d85be3a138eU,
  0xbd313275bdcf0139U, 0xbdc7036dbc874fb2U, 0x3c5d1c1f3d932a9bU, 0xbc1a221d3d243762U,
  0xbe004278bd55ba81U, 0xbde8f447bd4a549aU, 0x3c3aa2203b0e51f2U, 0xbc8707e5bd68f115U,
  0xbe08dbf2bd140f05U, 0xbd53669cbc7b9f32U, 0xbe2182f0bdde04ffU, 0xbdedeede3d95cd86U,
  0xbd26bd04be054eacU, 0xbcd22288bc367e11U, 0xbbda4922bde50175U, 0x3b0e98b53d3f2298U,
  0xbdb226f1bdf6337dU, 0x3d2245cbbd8e6d16U, 0xbd871650bd7e0f46U, 0x3d38e12fbe0bdd43U,
  0xbd6d38b5bd8ef4cbU, 0xbe0dc88ebe23e216U, 0xbd237216bd87cf7eU, 0x3dba25153daaf05eU,
  0xbc8602d53d0cebb5U, 0xbd29034dbe017407U, 0xbdff8b0e3d67c4e1U, 0xbe32f1a93de8efffU,
  0x3d050124be4a8997U, 0xbcda6114bbb65abcU, 0xbde15338bbc917afU, 0xbd0e63d63dc6cb90U,
  0xbd348bb1be528db0U, 0xbbfc6fa0bd38c9b7U, 0xbdf8f7d9bd635385U, 0xbd390be1bded634cU,
  0xbd9d43833c81103eU, 0xbc069fe4bd946580U, 0x3d637ec0b98f5775U, 0x3dbfe4fcbd077f4fU,
  0x3d5bbadf3dcd201eU, 0x3d035689bd585f9bU, 0xbd94aa52bc87cee8U, 0xbe8ef22f3e00d752U,
  0x3df16ce63cd50b76U, 0xbd7aa9253decd823U, 0xbd0f371c3d9bcea5U, 0x3dd26ff33e2338bfU,
  0xbb77c349bd705d1dU, 0x3e0399643d8ec697U, 0xbe13c3813d09f5c3U, 0xbc1d85fd3e08d3d6U,
  0xbe5584013dc0e48aU, 0x3db7d73a3d0fa47fU, 0xbd93713bbd9e3f10U, 0xbe34eac5be1b0079U,
  0xbd0a6b15bda18ed5U, 0xbe32d0fa3e09dbcfU, 0xbdb98b353cdf44a1U, 0xbdaa96a4bde8b791U,
  0x3d90e4d73e3f7f1eU, 0x3a61c42bbd9a9990U, 0x3d1836883de733f6U, 0x3de71fd2bdd1c98aU,
  0xbb63ebbdbd5c6b3bU, 0xbd4f36413db4ce55U, 0x3ce903023c98db38U, 0xbcf68c3e3df79a73U,
  0x3d3553e2bc075529U, 0xbdafb2c2395bffb0U, 0xbddea9bcbd60ee73U, 0xbbd516febca37fdcU,
  0xbdc952f9bc5d864dU, 0xbbceb4bb3d66a43cU, 0x3d8026dfbdc84b23U, 0xbd8afa41be37e658U,
  0xbdaedae1bb0ef4c6U, 0xbcb4345fbd931d33U, 0xbc3e0b483c43144aU, 0xbd2d94c7bdef8b12U,
  0xbb7539acbd27c849U, 0xbe0c62eb3c7c6023U, 0xbd2cdbaebd59d467U, 0xbdcf11a6bd2ac028U,
  0x3de61025bd8006e2U, 0x3c7617063da8e8e0U, 0x3ab98aa93cc4b922U, 0x3d6d2a1fbc8463b0U,
  0x3e05df723dede44aU, 0x3dddc3d3bd19f46aU, 0xbcc891b03d579238U, 0xbc12d843bd93659dU,
  0x3de97976be00b892U, 0xbdee482b3d0788c5U, 0xbe1116833c232fbdU, 0x3d993cf5be3bfdccU,
  0xbd8c32dd3ae9518bU, 0xbdd0da21bcae7887U, 0xbdc944503ded2638U, 0xbd508353bbbb210dU,
  0xbd9980553cfbd00dU, 0x3dbe80adbdbdc3f7U, 0x3d86299dbdb0f6dbU, 0xbe1c26da3c048a4fU,
  0x3d7a468dbd8d589aU, 0xbdb76a883da57189U, 0xbca12ea5bdb486e9U, 0xbc8e1127bc63093fU,
  0x3de56f463d696ff5U, 0x3d98ee52bdc9d1ebU, 0x3df48b3e3da40e38U, 0x3dd4fdc1bd28d60fU,
  0x3d768135bdde5050U, 0xbe08af6c3de9f691U, 0x3dc174a43d5008e6U, 0x3d989bf13dbe30c2U,
  0x3d92572dbda10c9bU, 0xbda3002dbc131cb2U, 0xbdb0c4ecbd3baeedU, 0x3d692ae6bc1b9adbU,
  0xbcafe4f93db278a5U, 0xbc89cf203da9258fU, 0x3da440c2bd8c559bU, 0x3ca8672ebbfedb33U,
  0x3c939e68be237e5bU, 0xbd061e0e3d520aefU, 0xbd8875ccbe1f060bU, 0xbda1d4393d26673bU,
  0xbe09c14dbdf9e5d9U, 0x3d0cbe76bded2a18U, 0xbdc1b6cabd2a492eU, 0xbc09bbfebdd508ccU,
  0x3e0ff329bdb399d4U, 0x3dbcec763cbad8e1U, 0x3cf316943d11164dU, 0x3e0ea9f03db3e7c6U,
  0x3dc3a5bc3dfa0db6U, 0x3e0eefd2bcd86af3U, 0x3ddbbc2d3cab35f1U, 0x3cb307e7be5c8720U,
  0xbccaa48dbc998795U, 0xbc8e821d3d51b859U, 0xbe033d5d3c9c3ad6U, 0xbc6449acbd8641e9U,
  0xbd5815a7bcaca9a8U, 0xbc1b93e33c41ccedU, 0xbdb7f6423d4d981eU, 0xbc23d67e3d66ac19U,
  0xbd1ed62e3e1f9f92U, 0x3c6c7260bde34368U, 0xbd363f23be1da09eU, 0xbe0f8a003cd31898U,
  0x3ce8e276be0545c4U, 0xbd661f363e465b8fU, 0x3d319955bc624d75U, 0xbd7bbf9e3b99db9bU,
  0x3d25bffcbcb23164U, 0x3e1a0a68be14f48cU, 0x3d870b3cbd6130efU, 0xbd6f59f7bd730e6dU,
  0x3d4809aabe3c6fa3U, 0xbdd8a2e63b532f7eU, 0x3dab2e1dbd3aab20U, 0x3b6db83f3d094f34U,
  0x3d99e160be26016fU, 0xbda05257bdb324edU, 0xbc0332f23d287328U, 0x3d0af9a2bd996d98U,
  0xbda208503c976890U, 0x3dc9a0ad3dddb763U, 0x3c100930bdeba94eU, 0x3d9aa1d6be046116U,
  0xbdc7ab6bbdd63f30U, 0xbd1f4a81bd44de0bU, 0xbdbe9fa8bd835246U, 0xbc2fd812be348a77U,
  0xbe06f88ebdebaa19U, 0x3cbcddf5bdf6d842U, 0xbd223b23bdba0853U, 0xbd214343bcfa9d17U,
  0x3e176d94bd910231U, 0x3d35cef5bd7df8f1U, 0xbdd07b763d7286f7U, 0x3deeef823d0650e9U,
  0xbc6862093e2a714aU, 0x3e489ca33cdb9068U, 0x3db5d8433d9d1895U, 0xbd4fb1bebe6760bcU,
  0x3cb3190abd034a2dU, 0x3d1b86643ddf7f34U, 0x3b0209703cab4a3fU, 0x3b8fdd04be2fde26U,
  0x3d8bc443bdefd9a1U, 0x3d4ff9ecbd473cf3U, 0xbe02cd1fb8b3f150U, 0xbcc8211fbc9f9e84U,
  0x3d84f506bbc9b626U, 0x3cdabd0b3cfeafecU, 0x3dbf73453d328a0fU, 0xbd40bcda3be72903U,
  0x3c1c622d3b428769U, 0xbd2ccab03d8f1dccU, 0xbe1002c53d6b711bU, 0xbe278aea3d79ec90U,
  0xbc0221683de136f9U, 0x3d3f2e21bd571846U, 0x3dfbd01e3c425357U, 0xbd2f48a8bd180db9U,
  0xbb5827dc3db875c8U, 0xbd614d35bc2a083fU, 0x3e051a88bd6f7f5fU, 0x3ce960743cb4d071U,
  0x3bdf357bbcfd031dU, 0xbcddf55cbd54b945U, 0xbd9059ccbd8bf196U, 0xbdce7980bd63c7b1U,
  0x3d8762d03d167af1U, 0x3c0b81bebcbf1f0bU, 0xbe271ea4bd830d1cU, 0xbe337df3bd8ebbc5U,
  0xbdb96b793e0d2960U, 0x3cbd9139bd347e3dU, 0x3c5607b13c5911b4U, 0xbbb1b27bbe034e75U,
  0x3db6f9f13d958fbaU, 0xbcdfdcdf3d53724fU, 0x3d4473ff3db70b1eU, 0x3bd7bc953d82deb1U,
  0xbbe07411bcf29f45U, 0xbdb0ff203cb9640aU, 0xbd68ad17bcd5d90cU, 0x3d409a30bdfa09acU,
  0xbc151aa23b14c625U, 0xbe17daf03e14eb28U, 0xbdd4e18ebd9aea7eU, 0x3cb9abbfbd8bb13dU,
  0x3ad3e9af3d679d7fU, 0x3d6573f2bdd74819U, 0xbc8bb24f3d22d911U, 0x3cb61316be0e2124U,
  0x3c9fa9103e33dfc0U, 0x3d333fa6bd132537U, 0x3e2447b6bc18f1c0U, 0x3d523b3a3c8d7185U,
  0xbdeed5bebd093075U, 0x3d1da0cbbd0b7938U, 0x3d1452a5bd1fb2a1U, 0xbe00a4bc3d0265afU,
  0x3cbb8c953d6d3924U, 0xbc4af769be0b0145U, 0xbdce2c4b3d6f0a1aU, 0xbe1382eb3dbe0392U,
  0x3d8b25f7bd93c0f6U, 0xbdeba9fbba9684f0U, 0xbe0460e2bd7d731eU, 0x3db459613d2cdea0U,
  0x3da1e5923d1644efU, 0x3d4aa095bd0376f4U, 0xbd80e355bd6b42d1U, 0x3c6ecc6fbd3510c7U,
  0xbe4fe2a6bd4e110cU, 0xbd943ad5bc9576d6U, 0x3e00fd483d01890fU, 0xbe1141dd3cd3c240U,
  0xbd837f4f3d9af4d0U, 0x3c5f7704be819168U, 0xbe5586aabd54162dU, 0xbe30efc73d46103aU,
  0xbc834602bd5140caU, 0xbdd7a4113d213b8eU, 0x3c94ecaf3d02ea8cU, 0x3dd29b8f3e043f18U,
  0x3c9dea35be001bc6U, 0x3b5dceb83d415a17U, 0xbd9b1f1ebb392135U, 0x3c04b5fabc947182U,
  0xbdc8a314bd690516U, 0xbc261b72bd9407f1U, 0x3d4ab2b1bd115db6U, 0xbe3aa73d3d8140caU,
  0xbd5a79793dfe5264U, 0x3c0334bc3cc1d0d1U, 0xbe8c69c53d7c5c8bU, 0xbe79d2bc3c90bc15U,
  0x3d2145523e1f833eU, 0xbd5633e23df8e184U, 0xbceed7f9bcd9e60fU, 0x3d3710323db11bbcU,
  0x3dd9648bbda13f6bU, 0x3d0c90babaadbfd8U, 0x3d8846af3df7d4bfU, 0x3d182d0b3daaef63U,
  0xbd4ee0a8be055fa3U, 0xbd3b12e2be1030beU, 0xbbd2cdd4bd7f625dU, 0xbdd3bf0cbc8e6258U,
  0xbd86c6313bd4741cU, 0xbd338a30bdaa4f6aU, 0x3d63f7ff3d144ffaU, 0x3d863d8e3db4e417U,
  0x3b07678ebe221d60U, 0xbde2f22bba537439U, 0xbd874abfbd4b4addU, 0xbdcce6ffbc045ce9U,
  0xbd912a56be05cfabU, 0xbd472d70bdd949cdU, 0x3c860b02bd10f93fU, 0xbe058a97bb5474ccU,
  0x3e02e357bdbc31b8U, 0xbdde72493d7fb661U, 0xbd5c2e4f3dc7a85cU, 0xbd0e88d23cb22be1U,
  0xbd71ccc33d876394U, 0xbc3fd253be10bd94U, 0x3c932a053be53081U, 0x38861f883d076557U,
  0xbd7750d2bda910efU, 0xbdbddcfb3c1f4d72U, 0xbd5cca383cd13c40U, 0x3d15b12b3b417a8fU,
  0xbdfcbdc53d32b065U, 0x3dadd6f03c452d8eU, 0x3d1fc33ebdb93a0bU, 0xbd38c804bddce017U,
  0x3d58b0ce3d03109aU, 0x3d1be7a23cc6ff0cU, 0x3e1a42de3cb31da8U, 0xbd86efd43e0e50f3U,
  0x3d4334183d4d7e33U, 0x3d447577bdea4287U, 0xbd860a2d3d7f5e63U, 0xbe54d9f33e0365c7U,
  0xba94cafc3c9d0327U, 0xbd8605a73c406196U, 0x3d34d4e2bcb2d368U, 0xbd8e121b3d8495c2U,
  0x3d447f44bd8d8c15U, 0x3d08a7c23cada3d3U, 0xbd9bf328bdf0ec3dU, 0xbdd116a53d09db2cU,
  0xbd0b25d5be4cf91eU, 0xbda953153d545079U, 0xbbe98ece3cc9c0daU, 0xbd27d3bb3d9e6323U,
  0xbd820a50ba4c928eU, 0xbc5072c4bd90a82eU, 0x3d4ca6b0bd23bd01U, 0xbdecbd00bdcb614aU,
  0xbdf00e99bd1ab653U, 0xbc240b6d3c014a1aU, 0xbbac9f36bdcd9199U, 0x3cde8ebdbd1e2a0fU,
  0xbe0ddeed3d8b4c24U, 0x3dc0dc61bc18ad60U, 0xbd35ecfdbcda7505U, 0x3c7e543038e1de8aU,
  0x3d951be2bdeab2a2U, 0x3c9eda393dbb5c71U, 0x3b33d53a3d12ae34U, 0x3d2c54a5bb255732U,
  0x3dd713843da2eeffU, 0x3d93085cbe33c036U, 0x3d075cbabd4c02dcU, 0xbd47dbbfbdb097dfU,
  0xbcb351d0bc927c20U, 0xbda3424b3d6723c5U, 0x3c9e420e3cf649f3U, 0x3dcacb23be210a72U,
  0xbcec858bbdbc7e25U, 0x3aa1c2bbbb6fed49U, 0xbe17f3d4bd573f06U, 0xbd12ff443c116a7fU,
  0x3de59c9c3e12e94bU, 0x3dd25a2c3dc1f417U, 0x3d167bd2bd18e670U, 0xbd944888bdd13294U,
  0x3dd40542bd4639f6U, 0x3db30f023c5595beU, 0xbd34f99f3dd3945aU, 0xbde9648bbc966f42U,
  0x3de39aafbcf27de1U, 0xbc377bdf3bc40862U, 0xbd87fc8b3c503b7bU, 0xbcaf22d8be2162c9U,
  0x3c37c54fbdf75734U, 0xbc699df43d75e2c4U, 0xbdae31c33d49c808U, 0x3c8191703d8a586cU,
  0xbcf82d573a9ffc6cU, 0xbb3f1afe3da5f390U, 0x3c2aa0e53d4d1838U, 0x3c7c0f47bdb8efa9U,
  0xbd03423d3d63c076U, 0xbd3f084fbe771420U, 0xbd8573afbcfee0b8U, 0xbda211a2bdb6a4b3U,
  0x3d7dc967bd056446U, 0x3c6afa8e3d6abf33U, 0xbd806ab83d745c54U, 0xbcc38937bdaa17faU,
  0xbd890cef3be74194U, 0xbd9829783d44adc4U, 0xbd8f7b273db78e58U, 0x3d18be7db9abfee2U,
  0x3d392e7fbc8e6999U, 0xbd9425ccbd6cfb68U, 0xbd7f94473d9c58a1U, 0xbd176b71bda3bc1bU,
  0x3d0deba83d98823aU, 0xbd83d6aebbcc8f57U, 0xbd9c2b33bcdcb15fU, 0xbb1cbd89be126958U,
  0x3d18d657bdfe40e6U, 0xbbc9f4e33dc2ba64U, 0xbd831c6d3cc308d4U, 0x3da86c5fbe28fa67U,
  0x3d80b6d1bde3cf44U, 0x3cb65545bd9eaaf9U, 0xbdfa1675bc9cf118U, 0x3d6589283d2b1024U,
  0x3d357056bca4cd7bU, 0xbc2cb3f9bc9ea33bU, 0x3d5287473d887fb8U, 0xbc32e6a5bd807472U,
  0xba1fb4fe3db571ecU, 0xbc8492993e3126a6U, 0x3b89c8183dc59ccfU, 0xbdf00ee2bdfd1f93U,
  0x3cf3ed96bd83efa8U, 0xbcc4a1373d3da569U, 0xbc59090a3dac95ccU, 0xbd015ef2bcceace9U,
  0x3dc357a9be5fcb56U, 0xbd6a5779bd9e186fU, 0x3c5ebc2a3d5f1301U, 0x3d19ecc1bd86ba22U,
  0xbcff10ac3cbcc8f9U, 0xbd8ea361bd899cbcU, 0x3d25aa233ce10c82U, 0xbdbadd4b3d2eb734U,
  0xbd2e6ee3bca07559U, 0xbcfd4357bce97f88U, 0xbcd55b4ebd8c7d35U, 0xbd95174e3d132e52U,
  0x3d61517cbdeb262cU, 0xbd902f303d399cf1U, 0x3d06d2b4bca319b1U, 0x3d9c34e93d75887bU,
  0x3a46a60ebe00f560U, 0xbc6903afbc8d35b9U, 0xbd19df3abd0934f8U, 0xbd8da7b8baa1f304U,
  0xbd692c993d8ed65eU, 0x3d94925dbe1d3c63U, 0xbd2159723d660f27U, 0x3d7ee40cbd0ace0cU,
  0x3dbfe01fbd3dd650U, 0xbd13b61cbba39fc0U, 0x3cf75fc2bd3dff16U, 0xbe5e73853d88c67aU,
  0x3d77e249be0fc2c5U, 0xbd8af0ec3db7ca75U, 0x3c3f38393c906807U, 0x3dbf4abebd76ceffU,
  0xbcecb592be2d841aU, 0x3dae5f12bc3a0130U, 0x3c524ace3cc66b5bU, 0x3cd373b5bd7f8078U,
  0xbe0b5e1bbb57e5dfU, 0xbd1bb27fbe0a648cU, 0x3dce3d423cfa6fecU, 0x3bd426083da13ab9U,
  0xbd70549c3d748933U, 0xbd8ce37a3e47550eU, 0xbde3008a3d88ace5U, 0xbe4b01ab3da7b520U,
  0x3ce4e01f3ce4d587U, 0x3d8752a73a1fea15U, 0x3d7fc2a63d500773U, 0xbd574be43d0e4707U,
  0x3d95b17dbe51fcb1U, 0xbd86cbfe3d883049U, 0x3dee4c9ebc73f89fU, 0x390687cc3d3a1f2bU,
  0x3e0046653b92fea1U, 0x3cc97143bd983916U, 0x3cacdb46bc72da1bU, 0x3e100899bd51695bU,
  0xbd815fea3d82c40fU, 0x3d6c9a8dbe33df29U, 0x3de31abd3bcf6b8aU, 0x3debed60bdfa94ecU,
  0x3d4114e6bdceeda2U, 0xbda178733dd07505U, 0xbda9d0873cf4de67U, 0x3dadeaa8be1a3b3cU,
  0x3bb8f71cbdda6344U, 0x3d2513babc4b5ae0U, 0xbd997797bc99961eU, 0xbd62688f3c4e1f0fU,
  0x3dd1357c3ce839b3U, 0x3dcbdcf33d146c8eU, 0xbe0d0d42bd5378fdU, 0x3c7ff082be0ed159U,
  0xbcdb92343db7cdd1U, 0x3dba498a3d3674b6U, 0x3cf32df43d242f55U, 0x3c5f6156bd9000f5U,
  0x3db3572dbd9d6d50U, 0xbcd74ef13d3a8984U, 0x3d65d86f3c855bdbU, 0x3ceff9a3bd22be57U,
  0xbd412131bdc561b4U, 0x3cb691d83da2d98cU, 0x3cf7b5dd3d500747U, 0x3d10acd23dc780f8U,
  0xbe6880ee3d842c0fU, 0x3c4b5168bd6fc926U, 0xbda52c19be14b276U, 0xbe424adf3d68ff4fU,
  0xbd182eefbde7914aU, 0xbd70926e3e3213d9U, 0xbe329355be23dd54U, 0xbe146ca6bd71688eU,
  0x3cf182cabbe0e95aU, 0x3d4bf68dbda1b472U, 0x3de5bf0fbbbea9ecU, 0x3d1129f63d128969U,
  0x3b7d85d9be1509efU, 0xbe0cc50abda445f2U, 0x3daf03a8bd255e86U, 0x3dd86358bdabed15U,
  0x3e3a745d3daff756U, 0x3d575b683daf29fcU, 0xbd9385e93df99127U, 0x3e1c3657bde16904U,
  0x3e0c714d3d8e0276U, 0x3ca4b0a0bda66c80U, 0x3e22f60e3ddf6d77U, 0x3e344ac1bdf5b81dU,
  0xbb61b5b4bd8aa0e4U, 0xbdb8d4c03dae79f7U, 0xbdad216ebd3a49d2U, 0x3c2f841dbe0776baU,
  0x3d90f043bdb68f15U, 0x3c5e00d2398aae3dU, 0xbdec8e963d54a9fcU, 0xbe15a4153cf3e919U,
  0xbda5d5a23dd47937U, 0x3b68f473ba0a9e8cU, 0xbd9ec760be0291dbU, 0xbda3ee34bc96a48aU,
  0x3c545bdcbd8e9ec2U, 0xbcef4ed33e0209e9U, 0xbd2453ba3d8d000bU, 0xbd12b584bc801e8cU,
  0x3ce649043d8b272cU, 0x3dc54475bd014f4cU, 0x3cacd4213dd3752bU, 0x3d4aa571bdbd710aU,
  0xbba9392bbe564261U, 0xbded7e52bc401e68U, 0xbc835220bcde210cU, 0x3d53d2993da9534eU,
  0xbdd4d6a0bdc0acffU, 0x3d36fe5ebdea078dU, 0xbd8f90c2bd963a21U, 0x3bc512403c91c638U,
  0xbd924c2bbe3f7242U, 0xbd2a898c3df21458U, 0xbcc465f8bdbccef2U, 0xbc220734bdc85459U,
  0xbdbf40473c66e211U, 0x3ddbeabbbe191c4cU, 0x3ca26d83bd6ddd61U, 0xbd8ff2bd3c4fe347U,
  0xbdb203adbdc2afbaU, 0xbd8508bebdce3d4fU, 0x3d807ae9bd9008f9U, 0x3d5ee64dbd181600U,
  0x3d7651ab3dcb1226U, 0x3e04ac653de0a4a2U, 0xbde25b173dd6718cU, 0x3db4f685bdaef3f6U,
  0x3d9518993daf38dfU, 0x3d418bcd3c80c4d1U, 0x3e42107e3d310037U, 0xbd9ac08abe1a49a0U,
  0x3d176187bdc71f15U, 0x3daa4bfc3d522216U, 0xbd5b38ccbc3374e9U, 0x3d82820abd825877U,
  0xbc837241be32005aU, 0x3d2cd0213d9914d4U, 0xbd1a12d8bd8d863aU, 0x3bf7d7663cdd8d88U,
  0xbda57f363dadc166U, 0x3dadf24cbe155fc9U, 0xbdceccf5be0d5320U, 0xbe2e0a13be04abf8U,
  0x3d263d10bdf804b9U, 0xbe3cab983b40053bU, 0xbd0ed4c8bdef6ce6U, 0xbd363ae7be25c095U,
  0x3da4a4dbbd841931U, 0x3df2f76ebdc4e46cU, 0xbd11a9043d0a0b54U, 0xbd8c06243b94aea2U,
  0xbced1385be567d36U, 0xbe947cf73d1f4791U, 0xbc42b438bb2fdd16U, 0xbdc2d2983b374185U,
  0xbd8d82ddbdf6ee07U, 0xbdcb353abd8c5f8fU, 0xbda0de09bdf6e765U, 0xbcf66994bd29601fU,
  0xbdeaad31bdb5483fU, 0xbd46071fbdc48d32U, 0xbcafb5fabe08f80eU, 0xbd65438cbd15272cU,
  0xbe11f949bda24385U, 0x3ce432f9bd88a60fU, 0xbdc132a6be07b6a5U, 0xbd8c99bebb97d8c0U,
  0xbde958983cd429caU, 0xbe035938bca3de69U, 0xbd901913bdcca5a5U, 0xbd9ae870bb6ed99fU,
  0xbb1f6069bc96811eU, 0x3cc7aba93d1d9405U, 0xbb3bb2603dd39621U, 0xbc82e2b8bde8d1bcU,
  0x382454adbda2c53aU, 0x3cedfd5bbcb41ac3U, 0x3b21fdb4bc5a2a6aU, 0xbd72fbe83caf6ed1U,
  0xbdde1ed4bd8cbd52U, 0x3dbae89cbdb9b0e6U, 0x3dae10f8bdaf0d60U, 0xbd8c0b54bcdd8f68U,
  0x3d250b173ce41ebcU, 0x3daa5752bc9f460aU, 0x3de03931bd92da31U, 0xbcd86226bda0d108U,
  0xbc07cdbb3d4b05efU, 0xbd38ad9d3d4cc153U, 0xbd3c0122bcf3fa67U, 0xbc6dd889bda5ab3eU,
  0xbd85e056be12fb3fU, 0xbc627fc43da3b0c0U, 0x3d8617bcbc740372U, 0x3cf74fdabbaf3fc9U,
  0xbde956c73de0fd47U, 0x3d1d2446be081759U, 0x3d7aa8703bd36988U, 0xbd8ca404bd1c68b9U,
  0xbdc09bb93d75f43aU, 0xbdb98231bd6f08c2U, 0x3d551ad2baca012eU, 0x3d3d97d33b0a5db1U,
  0x3d3d40a8bd1942dcU, 0xbda8378e3dbe2b60U, 0xbcf97bf43ba9e059U, 0xbd55029fbdccb5edU,
  0xbdaa5125be0c1e41U, 0xbde64d06bcf90ee0U, 0x3d896705bc94e524U, 0x3bee85f8bdab1b1bU,
  0x3ce00bc53da4934aU, 0x3d51f133bdca54aaU, 0xbd7081b8bde2815fU, 0xbca2618fbd43a76fU,
  0xbcb083f53c6ec951U, 0x3db8c0273d634e98U, 0x3d8bbaa6bd6941c1U, 0x3cfd97b3bdf30f14U,
  0xbd8c64dbbc29112dU, 0xbd2560b23c55a91eU, 0x3d016196bcca02c6U, 0xbdaf643b3d32d3feU,
  0x3be7a71cb853c7fdU, 0xbd92e1d0bdddef70U, 0xbdae0e33bd305a7eU, 0xbdbe16973e163680U,
  0x3d84def63df06731U, 0xbdb2e601bdbe1dfdU, 0x3d2147723ccd8c2aU, 0x3d80bac73e297bf6U,
  0x3db3789e3db27bb8U, 0xbc1a6cb93de7e655U, 0x3da4d9613a9f11f7U, 0x3db6e704bc009b7cU,
  0x3da73a47bba7054dU, 0x3d77fdca3db2c112U, 0xbba32f7cbd89834cU, 0x3d3a6d50bd4b62e8U,
  0xbcbfa67abc9eb3eaU, 0x39b14e0b3d736100U, 0x3c4774173a8a23eaU, 0xba41da833dfdfbd3U,
  0x3db1b195b9b08404U, 0xbabc6cbcbdc95ecaU, 0x3d14cb5abc0bcbd9U, 0xbbe1d0843dcc7020U,
  0xbd417cb13de29ee9U, 0xbcd1fd5d3d84d261U, 0x3d440e593dc40cf4U, 0x3c37cd823de671a2U,
  0xbd7878ce3dcafc27U, 0x3d0c8f913d1ccabeU, 0x3a147b3a3d019dbdU, 0x3b3400c33d5e4889U,
  0x3d2832353d835d08U, 0xbb19e4ac3c38be6dU, 0x3d1d13a0bcdcc98cU, 0xbd663ffb3c669baeU,
  0xbbd402b03c4ef174U, 0x3bbece0f3d2010abU, 0xbcd038d6bdad8c42U, 0x3c6e57f43c9edcf1U,
  0xbd8e657e3da00e16U, 0xbda40de6bd379200U, 0xbc4b32883d161edaU, 0x3d8b3aa6bdb64275U,
  0xbe623f63bd8d4608U, 0xbcf5db47bd6980adU, 0x3d427f44bcd961f9U, 0xbd967f5e3d1a4203U,
  0xbe29d446bac65dd6U, 0xbd4339efbe54eb6dU, 0xbe5543903d5bc1aaU, 0xbdca150f3e56226cU,
  0x3c0bcaa9be1ec352U, 0xbddb2c0b3ba00506U, 0xbe21b50c3c5fcb3eU, 0xbb8f9ab03e63c6b3U,
  0xbd864d53bb98dfc6U, 0x3e42c9bcbdc6283cU, 0x3c51abe5bdc1675bU, 0x3d569b023cbc35fbU,
  0x3d8da7193c88f67dU, 0xbc84b6aabd181425U, 0x3df065bcbd7cc1a6U, 0xbd6ea3c43d832017U,
  0xbde6aa9d3d9c5595U, 0x3da64233bd67c460U, 0x3cca30c8bd9eaee7U, 0x3cd31ef03e6a0407U,
  0x3ba61381bcd49454U, 0x3c9fdf3b3df4c1bfU, 0xbd46e903bcdb1029U, 0xbc7dcb743e7b85bfU,
  0xbd4d6fae3d5b2e71U, 0x3d56f5c1bcac4488U, 0x3cebca76bd598d2aU, 0xbb33581fbd080de8U,
  0x3db2c4b53bc60296U, 0x3d52c907bcf953abU, 0x3d2da9f3bd607b88U, 0xbc7454063defe315U,
  0xbcc699883d11c3f0U, 0xbc8769c2baf85383U, 0xbc125017bd710cf2U, 0xbc9efd7a3a96648cU,
  0xbc0c4bec3b0a4c18U, 0xbcc23f1b3d081f59U, 0xbc88d648bd9509dfU, 0xbd93aa153da23d48U,
  0xbd8d3cc2bc8b8ac6U, 0xbd79f8ce3cbe015cU, 0xbbe5a0cbbdca45d0U, 0xbd02a4fbbca86376U,
  0x3dc602833d725753U, 0x3d5bf1c7bdc17e7fU, 0xbc8fa9563dcabf37U, 0x3d04070fbdf1a590U,
  0x3cfe1a77bd324147U, 0x3dfaabc33d9971ebU, 0x3db137123e06e799U, 0xbc62b329be073837U,
  0x3cff5833be1ba377U, 0x3d15878d3d3500d3U, 0xbc73bbf23cda01ebU, 0x3d3541fcbe287455U,
  0x3baab1cbbe4e2625U, 0xbd991540bc20880dU, 0xbd5cb4d1bdd207feU, 0x3d276059bd0144daU,
  0x3dd29f553dbdf29dU, 0xbc03b4edbc7681ccU, 0x3db4ddfebc79604aU, 0x3cb738f13e1bc111U,
  0xbdac7f69bdc98112U, 0x3b82bb8a3e3aa6eeU, 0x3deeeb5d3c5f9605U, 0xbe580c253c80f04bU,
  0x3c990ac2bcdbe16eU, 0xbbb52ec2bd99b0b2U, 0x3dabfc793d012344U, 0xbd7fc8923d182061U,
  0x3daf3c52be87ff16U, 0x3b93a13f3ce106f2U, 0xbd00ea35bd4486acU, 0xbc76de6cbc0fcbf0U,
  0x3dd12073bcdbdf3dU, 0xbdd7f760bda43fd5U, 0xbc8569523db28000U, 0x3dfd30b83d71f61cU,
  0xbb2981bb3c27bf75U, 0xbd17ad603d380143U, 0xbcb4d306bc7f6c89U, 0xbd7620273d5717faU,
  0xbd03c3ecbe09b0a5U, 0x3d589d843d93d1f3U, 0xbda0e792bdbbfc7aU, 0x3c324e293d654c01U,
  0xbdee93b9bcd2746aU, 0xbbbf5c53bce46515U, 0xbd9414a9bc9542efU, 0xbde274bdbc2ed049U,
  0xbd565ee33cadc6c2U, 0x3d88bd46be0a58ddU, 0xbd98e9bbbca07839U, 0x3c2e22253cb06d36U,
  0x3d435e423d6c8f80U, 0x3da7a9f13ddc6a08U, 0x3d1940a53d3b3906U, 0xbeb4f979bdddc04cU,
  0x3c8340aa3d7e6939U, 0x3da048053d93956dU, 0x3d2e457f3d254dd3U, 0xbc04d9a2be1b43c7U,
  0xbd952ebcbe65a9b4U, 0x3d476566bc8f6cceU, 0x3d23ef6f3d19a3acU, 0xbd11f3253d95a1d2U,
  0x3cf236d5bcf1e06aU, 0x3d8dacadbdb68193U, 0xbdbba5543d5d3e11U, 0xbdefbf48be36103cU,
  0xbba3feb6bcf40bc0U, 0x3c6a79cd3e2021e4U, 0xbe6c0fbfbde16c22U, 0xbe90e80dbe2bd94dU,
  0xbde4b2673e181739U, 0x3d9f60a2be126037U, 0x3e366c23bc9a508cU, 0x3c857756bdd827ddU,
  0xbd6b66cd3b36f3e4U, 0x3d34a0793d72fd32U, 0x3e19234b3e13e883U, 0x3d0495183d529ad5U,
  0x3de0df433ce014d7U, 0xbcfb00af3ddb6808U, 0xbdab972d3d74fecaU, 0x3e0a57d03d3c7832U,
  0xbd1770f43cfb863aU, 0x3d2ec08f3da2bb33U, 0x3e141b9e3d677cecU, 0xbdd1f1cfbc31f776U,
  0xbd624f3c3cdb7987U, 0xbd3a65543c372f9bU, 0xba0a18debdf1f3ebU, 0xbd9686b9bcb7181bU,
  0xbb17b4033b7cea16U, 0x3e14bb1dbdd2378bU, 0x3c6d64a33c50e727U, 0xbd872ccbbdc6ad9dU,
  0xbc91ee07bdde171dU, 0xbda1fd84be1b294eU, 0x3d2db65abcb3845eU, 0x3e2b3583bcf04cd7U,
  0xbd6dc4243e0b3689U, 0x3dcfd7b2bdcfe4c1U, 0xbe06de62bc8aec32U, 0xbeb0271fbc2f04faU,
  0xbdbda1f83d62f307U, 0xbdc912233e103f84U, 0x3cf6e1773d4429e1U, 0x3d9126ca3d97a9caU,
  0xbc23165dbe1117a5U, 0x3dc6f7323d00a6b3U, 0xbe2da421bdd1459dU, 0x3d5dd985bd4d0976U,
  0xbd0c2043bda9b022U, 0x3d6f62dc3d9deeb8U, 0x3dbc0facbd5ca223U, 0xbcb757e73d93dc41U,
  0xbd46d80a3cee40e0U, 0x3c935d4d3dba7280U, 0xbe831cdf3d46f872U, 0xbe75af2b3de8dd51U,
  0xbd8062c33e422243U, 0x3d041c593d37231dU, 0x3d0868de3dd5de2fU, 0x3d8ee5a13e2df0c6U,
  0x3d9c0ed13dd0ce12U, 0x3db477403d9fd9ceU, 0xbd0edc823e28ebc1U, 0x3e15b1563dd3a684U,
  0x3cb05d87bb4a1c96U, 0x3d89d7363e274b5aU, 0x3c21e047bde4aac5U, 0x3a0372363d4db2e4U,
  0x3bf8431d3c7c740fU, 0xbd8a3f633d78d5f4U, 0xbe0b51b43d333065U, 0xbe18dc9e3cf09a32U,
  0xbd237c133e1c380bU, 0x3cfabb1bbd9630a0U, 0x3e18057abd2bcf53U, 0xbd46dbf83c815538U,
  0x3da536433e07cbaaU, 0x3ce4ed353e049becU, 0x3d684c733db7a7d9U, 0x3ca6586fbc44ff98U,
  0xbe50d6f8bd8d3031U, 0xbdef286d3e0886f1U, 0xbca65f86be5af905U, 0xbd83d6983b34004fU,
  0xbe399e3ebdf0b90aU, 0xbdf0a58e3d31d49aU, 0xbe142ba5bdf106bcU, 0x3c76e1ee3e458f8aU,
  0xbe3784cbba890d2eU, 0xbdb2116cbe2b27baU, 0xbd5f1896be075ee2U, 0xbe0b75253e0e6db1U,
  0x3c7012833ea38254U, 0x3e1f8f603d2fa782U, 0x3e4f91db3ce64e67U, 0x3ddb97bebbcd369fU,
  0xbe3e7b56be43faefU, 0xbe3dd0c5bdd26f96U, 0x3b3d64bfbd8d6507U, 0xbcf71c313dbe3258U,
  0xbd5d622c3ba5f905U, 0x3c53f6b3be4d93c3U, 0xbdec8997bd727054U, 0xbda57eeb3e347935U,
  0xbe31ca37be22759aU, 0xbe9d6456bdb96d8eU, 0xbe58874dbe5cd668U, 0xbddde4b13e464ed3U,
  0xbde5a220bb46529eU, 0x3e07b569be1b3c9eU, 0xbc363847bda49adbU, 0xbd15acd3be6c467cU,
  0xbe1745903c490f16U, 0xbdbbaa33be7988aeU, 0x3d49f3ba3b598c45U, 0xbd8152a7bcdc642fU,
  0x3b8f09383dd2f968U, 0x3ce80802bda5da3aU, 0xbcd5a2e2bd47dde4U, 0xbdd660013e0bf549U,
  0x3cc2500bbe24c868U, 0xbe0d37643e0850e0U, 0xbdaee54d3c712118U, 0xbd0fd97d3d5c9ac0U,
  0xbceed790be1aa1e8U, 0x3cb3f8f0be161f4bU, 0xbccbe284be6342f4U, 0xbd7df0273c4d9156U,
  0xbd4068c63cd61f93U, 0x3d5179733e57d4ffU, 0xbcd88832bc6b141cU, 0xbcd3397e3d6de312U,
  0x3c07131b3d2442bfU, 0x3d9e9cdebba2ead4U, 0xbcfa9b9e3d922dbbU, 0x3dad2e61bd558d9cU,
  0x3d3bf16a3e552e67U, 0x3d97ee1cbd4f64efU, 0x3dbc022b3d8c1c42U, 0x3d01e9683cefd977U,
  0x3b5c05673e29c0f7U, 0x3d1712633d9b68bcU, 0x3dff080d3e2734e5U, 0x3daff4573de59bdbU,
  0xbe1b7047be2e1c09U, 0x3ca7e8ff3d84666fU, 0xbd9f026bbd917b55U, 0xbbd4d33dbe45d5c1U,
  0xbc9542bebd08255eU, 0xbe0961d53e3c2496U, 0xbd1c39f0be3513e5U, 0xbbb885c9bdeb55a4U,
  0xbd96b1973d7f52e5U, 0xbce958c9bde46299U, 0x3da88f553d93a86bU, 0xbddd6000be14c172U,
  0xbcba3b483e166855U, 0x3e2126673dca4a82U, 0x3e4a54ba3dfd8047U, 0x3dcf6012bc5e9332U,
  0xbe21ad29be3d2174U, 0xbe34cf48bd03bfbdU, 0x3da16ae0bc91727cU, 0x3d57e8433d90fe9eU,
  0xbe38a46e3b9d129aU, 0xbdbfbd383e199057U, 0xbe2ddc3ebe3837a3U, 0xbdaa1021bd3fe539U,
  0xbe34e332bd95c452U, 0xbc63b7e43d0161a5U, 0x3d44ef54bdfd383dU, 0xbdeb13c4bd457753U,
  0xbe2c9341bc910ae4U, 0x3c0f34a7bdb505e1U, 0x3de76b92be009b46U, 0x3d81a9a7bd9678c9U,
  0x3e1b9ff73d9bfcc4U, 0x3dbc45f1bd6c6d0aU, 0x3d684f3b3e3a95d8U, 0x3de542743d40e6f2U,
  0x3d181b673e0848aeU, 0x3e938d123d56ecffU, 0x3dbf95e03e415ecfU, 0xbd3717a6bcca2d66U,
  0x3c81448d3cf91625U, 0x3e2184c73e72492dU, 0x3cb42f6a3d88e25dU, 0x3d4097fb3e143ceaU,
  0x3d96780ebd2f8b03U, 0x3e1326b83bc02c3aU, 0xbd9f38063dacfdbcU, 0x3d95bebb3d1749f4U,
  0xbd4987c53e029a39U, 0x3de92893bd047638U, 0xbdefe4de3d9215edU, 0xbd21ccf8be280921U,
  0x3d9dfad03cc8ca6fU, 0x3e1444bf3e86465dU, 0x3d5487e43dfad575U, 0xbcd0f1f2be833337U,
  0x3da0410a3d6f7bf7U, 0x3e542a783e24fdbeU, 0x3e23b2503e2e41ceU, 0x3e2e317abdb6e368U,
  0x3e28907dbd73cf4bU, 0x3dc85eea3e252707U, 0x3dfff8d83d9301c3U, 0x3e296cbe3e1f2bd3U,
  0xbdb42d74bdfc71cfU, 0x3d0557ebbd2ef7ebU, 0xbe0be7743bf3104fU, 0x3d727ea3be2850a9U,
